node {
  name: "x"
  op: "Placeholder"
  attr {
    key: "dtype"
    value {
      type: DT_FLOAT
    }
  }
  attr {
    key: "shape"
    value {
      shape {
        dim {
          size: -1
        }
        dim {
          size: 5
        }
        dim {
          size: 5
        }
        dim {
          size: 31
        }
      }
    }
  }
}
node {
  name: "cnn_model/9939"
  op: "Const"
  attr {
    key: "dtype"
    value {
      type: DT_FLOAT
    }
  }
  attr {
    key: "value"
    value {
      tensor {
        dtype: DT_FLOAT
        tensor_shape {
          dim {
            size: 20
          }
        }
        tensor_content: "\341\273\000@\351\265/@:\260Y@\366\260\262>\226\302*@\354^q?\2465#@3Ux@\237\216:@}\275j@\230\023M@\204\220!@l\354s@\031-\324?\227\227\\@\275#\227@\267\321\271?\245\002/@\261\332\240?0\356\024?"
      }
    }
  }
}
node {
  name: "Func/cnn_model/StatefulPartitionedCall/input/_63"
  op: "Identity"
  input: "cnn_model/9939"
  attr {
    key: "T"
    value {
      type: DT_FLOAT
    }
  }
}
node {
  name: "Func/cnn_model/StatefulPartitionedCall/input/_0"
  op: "Identity"
  input: "x"
  attr {
    key: "T"
    value {
      type: DT_FLOAT
    }
  }
}
node {
  name: "cnn_model/9841"
  op: "Const"
  attr {
    key: "dtype"
    value {
      type: DT_FLOAT
    }
  }
  attr {
    key: "value"
    value {
      tensor {
        dtype: DT_FLOAT
        tensor_shape {
          dim {
            size: 40
          }
        }
        tensor_content: "\307r\215:[\023\212\271\002\002\254\272\364\263;:\022A\3049\3547\037;@o[\273]\300\035\273V\373\275\272Et\202\272\341}\036\273\\\227\217;\351\246\3038\376\271\217\272Hb\246:\257\'X;\030D1\272.\354\216\273VmH;\266\003j9d\r\222:\212C\2069\013\376\233\271l\352O\272*\315\274\271\347\265\3578\211\201\033;\217\222\247:8\231\224\272\203\316\223\271\306\256\223:ry\362\271\242\"\007\2734\217\036:\233\376n;\264\231\246;\275P\2229\225\177\272\272]\024}:\210\310H\272"
      }
    }
  }
}
node {
  name: "Func/cnn_model/StatefulPartitionedCall/input/_14"
  op: "Identity"
  input: "cnn_model/9841"
  attr {
    key: "T"
    value {
      type: DT_FLOAT
    }
  }
}
node {
  name: "cnn_model/9855"
  op: "Const"
  attr {
    key: "dtype"
    value {
      type: DT_FLOAT
    }
  }
  attr {
    key: "value"
    value {
      tensor {
        dtype: DT_FLOAT
        tensor_shape {
          dim {
            size: 20
          }
        }
        tensor_content: "\201\010\202?17R?\336\265j?1\017U?\316s4?x\356d?\340j\210?78|?\254{\\?\236v\205?F\177\274?\"\327m?]s\201?\231e\207?g2w?\327(\214?\310>\231?\3018\224?\303\260\216?\361\373\211?"
      }
    }
  }
}
node {
  name: "Func/cnn_model/StatefulPartitionedCall/input/_21"
  op: "Identity"
  input: "cnn_model/9855"
  attr {
    key: "T"
    value {
      type: DT_FLOAT
    }
  }
}
node {
  name: "cnn_model/9881"
  op: "Const"
  attr {
    key: "dtype"
    value {
      type: DT_FLOAT
    }
  }
  attr {
    key: "value"
    value {
      tensor {
        dtype: DT_FLOAT
        tensor_shape {
          dim {
            size: 20
          }
        }
        tensor_content: "e\240e\275\265E\223\274\264+\302>\227\253\205>G\031\255>Ah\244=\3127\334\275LL\233>i\030\013\276\334u\366=JV\274\274+\013\312\276\262\272y\275y\2148;\3324u\274o\346@\276\242Y\225\276:\356\217=\261\241\275\276C]\\>"
      }
    }
  }
}
node {
  name: "Func/cnn_model/StatefulPartitionedCall/input/_34"
  op: "Identity"
  input: "cnn_model/9881"
  attr {
    key: "T"
    value {
      type: DT_FLOAT
    }
  }
}
node {
  name: "cnn_model/9891"
  op: "Const"
  attr {
    key: "dtype"
    value {
      type: DT_FLOAT
    }
  }
  attr {
    key: "value"
    value {
      tensor {
        dtype: DT_FLOAT
        tensor_shape {
          dim {
            size: 20
          }
        }
        tensor_content: " \024\207?\024F\231?HZ\222?\252j\226?\014\034\202?^\023}?y3\207?\347\'\241?|\035m?\017R\210?n|\214?i\306w?\344\336y?(\241\232?\300kv?\241\355I?\3206\205?\033C\230?5K\206?\270\246f?"
      }
    }
  }
}
node {
  name: "Func/cnn_model/StatefulPartitionedCall/input/_39"
  op: "Identity"
  input: "cnn_model/9891"
  attr {
    key: "T"
    value {
      type: DT_FLOAT
    }
  }
}
node {
  name: "cnn_model/9903"
  op: "Const"
  attr {
    key: "dtype"
    value {
      type: DT_FLOAT
    }
  }
  attr {
    key: "value"
    value {
      tensor {
        dtype: DT_FLOAT
        tensor_shape {
          dim {
            size: 40
          }
        }
        tensor_content: "\227\240d?\371yk?\000\333\357>\205\022\202?\020R~?\371\036z?\035De?\332\357\233?S\360v?A\003t?\206gt?5(\233?/\231\204?\306\237q?\371w\205?\203 \253?\272N\204?\255\'\215?Wk}?\272\330\223?Q\256\230?\210\'t?\254\016\243?JG\214?7{\202?/\222W?\376\340r?\000\017\226?Dl\235?\310*}?:v\221?)\215\214?\276\316s?\305\010\034? kj?\320\251f?=\rx?q\004V?\245;\203?#\274\213?"
      }
    }
  }
}
node {
  name: "Func/cnn_model/StatefulPartitionedCall/input/_45"
  op: "Identity"
  input: "cnn_model/9903"
  attr {
    key: "T"
    value {
      type: DT_FLOAT
    }
  }
}
node {
  name: "cnn_model/9915"
  op: "Const"
  attr {
    key: "dtype"
    value {
      type: DT_FLOAT
    }
  }
  attr {
    key: "value"
    value {
      tensor {
        dtype: DT_FLOAT
        tensor_shape {
          dim {
            size: 40
          }
        }
        tensor_content: "\177\252=@Nl\002@\3038\216?\242\036q?\253\037!>h\n\014@5\262\314?\300\364\217?\362\362\242?\006\346W>1\337\353>\3319\306\003)\373\375=\236\314\'@\341\014\024@jy\177?\246\2124?\333.\"?\246\n\207;W\257v>v\371 @\252\203\207?B\300\323?\246\001\223?\271;\324?\333\030\016@\016\203\301?\240\357\307?\025E\270?\026\010\271>y\357C?s\374\341?\301\233\201?\217\272\t@\036`\363?C4\\?EyR@\263\370\207?\207M&@[\2764<"
      }
    }
  }
}
node {
  name: "Func/cnn_model/StatefulPartitionedCall/input/_51"
  op: "Identity"
  input: "cnn_model/9915"
  attr {
    key: "T"
    value {
      type: DT_FLOAT
    }
  }
}
node {
  name: "cnn_model/9895"
  op: "Const"
  attr {
    key: "dtype"
    value {
      type: DT_FLOAT
    }
  }
  attr {
    key: "value"
    value {
      tensor {
        dtype: DT_FLOAT
        tensor_shape {
          dim {
            size: 20
          }
        }
        tensor_content: "w\236\262\276\347\237\023\275\002\337\356\276\024+\265\277*\264\273\277\013\246\313\276\214\0179>v\231\210?Zi\302\275\001\260\377>U\210\267?j\247\224\276J\375s\277\215 \350\277\t\032u@[9\344?\275X\214?\225\340O\277\017\306\016\276]\303\026>"
      }
    }
  }
}
node {
  name: "Func/cnn_model/StatefulPartitionedCall/input/_41"
  op: "Identity"
  input: "cnn_model/9895"
  attr {
    key: "T"
    value {
      type: DT_FLOAT
    }
  }
}
node {
  name: "cnn_model/9909"
  op: "Const"
  attr {
    key: "dtype"
    value {
      type: DT_FLOAT
    }
  }
  attr {
    key: "value"
    value {
      tensor {
        dtype: DT_FLOAT
        tensor_shape {
          dim {
            size: 40
          }
        }
        tensor_content: "\260\300w@,\242\227@f\310\315ADPqA@\331%A3\374\265@\0134\200@\250\377#@O(\205A:*\005@\342@\027AW\357\325@J\365\212@\036\351\371@f\316qA/\251\264AHG\023A\263\240\324AI\343\310@\220I\210@g\255\241A\336\325_A3\367\016A\325\262\306@\226(\306A\301M2@]x\376@\267w\263@\377\210\274A\271\245\202@\253\\\267@)\022FAc\343\204@/gOA\353\372`Ax\202z@b\272\367?\354\001\275@\353N\013B\010\030X@"
      }
    }
  }
}
node {
  name: "Func/cnn_model/StatefulPartitionedCall/input/_48"
  op: "Identity"
  input: "cnn_model/9909"
  attr {
    key: "T"
    value {
      type: DT_FLOAT
    }
  }
}
node {
  name: "cnn_model/9919"
  op: "Const"
  attr {
    key: "dtype"
    value {
      type: DT_FLOAT
    }
  }
  attr {
    key: "value"
    value {
      tensor {
        dtype: DT_FLOAT
        tensor_shape {
          dim {
            size: 40
          }
        }
        tensor_content: "\250\314R\276*m\266>\212\177H>\263\t->i@;\276\310\017\361\276B9\374>\362\373\256;\007\217\240>b\340\222\274\332\311\007\276\241 \226:\271\342(>\272c/>\314\205\224\275\222\311\204\276\354\312\235\276\n\274\260\276M\346+=\3639K\276\371\226\031>\032\025\235>\217\227$\275\010(\264\275\347\236\343>\370\361\324=\031\346\215>^\241\334>\264s\016=A:\203>\006\007\235=\221\226\206>\031\335\227>\357\341\201=V\372\243\275\340\225M\276@\343\204\276\302\022\002?Q_\354;\343\t\215>"
      }
    }
  }
}
node {
  name: "Func/cnn_model/StatefulPartitionedCall/input/_53"
  op: "Identity"
  input: "cnn_model/9919"
  attr {
    key: "T"
    value {
      type: DT_FLOAT
    }
  }
}
node {
  name: "cnn_model/9821"
  op: "Const"
  attr {
    key: "dtype"
    value {
      type: DT_FLOAT
    }
  }
  attr {
    key: "value"
    value {
      tensor {
        dtype: DT_FLOAT
        tensor_shape {
          dim {
            size: 80
          }
        }
        tensor_content: "%y\027>]\311\362\275\353\320\227>mQ\376\276cE\210\276\n2\303=j\201(\275&fF\276\025\237\177\276\370{\236\275\264\372\020\276j.\003\276\244\251\213>n\\\037\276j\357\217\276\276\331\270\276\210]\202\276s\372\n?r\221<\276\231[7\276\362\222\202\275\340\212%\276\225\253)>\247A\307\275\341\210\202\274\230\336\247\276h\377\226\276\005\207\371\276E\212\032\276\005(>\276W\277\240\276\223r\177\276\204\010\203>r\024\266\276\020$\234\276\243\024\263<\333\231A\276\260\362\273=w{\365>v32\276\360\032\217\276\243\363\016?Z\260\370\275;\233\311>\221\205e\275\276l\276\275\271\324 >\001@6\276\247\225\231\276\250{\016\2765H\231>\305ub\273 \2657\275\372\224\353\275*\361\244\276\2473J\275\030\t\260=\256\025?<\327\356*\276f4m>\310\3169\276\277\'r\276\263\203\247\275\362e\027\276\313h\017\276\304\033\347\272\242\315\373\273>\205d\276\303\261\253<\223e\350\274\310|(=\353\210\031\276w\335c\276\202c{\275dA\217\276X\340?\276\342~\256\276W\254\">\023e\347;\033+\302\275"
      }
    }
  }
}
node {
  name: "Func/cnn_model/StatefulPartitionedCall/input/_4"
  op: "Identity"
  input: "cnn_model/9821"
  attr {
    key: "T"
    value {
      type: DT_FLOAT
    }
  }
}
node {
  name: "cnn_model/9905"
  op: "Const"
  attr {
    key: "dtype"
    value {
      type: DT_FLOAT
    }
  }
  attr {
    key: "value"
    value {
      tensor {
        dtype: DT_FLOAT
        tensor_shape {
          dim {
            size: 40
          }
        }
        tensor_content: "\276\235/\276\350\232V\276\227\255\307<\254\3655>:\357U\276%@A\276\316\330\247\275\2228r\276\256\024|\275\225m\207\276\303\032\275>\265\365\033\276\305\324\002?\306O\231\276&~\227\276\363ow>\007\r\250\276\244\220\362>\242\3507\275\222.\302>=a:\275\000a\021=5\352`\276\303\177}\276\336\237\006\276Y^\007\277%\256\370\274tgV\275o\204r>\017\300~=^\353\260=\177\311\303\275\\#s\276z\351\214\276\307)\260\275\303:\256\276\336\365\t\277\025i\272\276\230@\203>\207\366\362\275"
      }
    }
  }
}
node {
  name: "Func/cnn_model/StatefulPartitionedCall/input/_46"
  op: "Identity"
  input: "cnn_model/9905"
  attr {
    key: "T"
    value {
      type: DT_FLOAT
    }
  }
}
node {
  name: "cnn_model/9917"
  op: "Const"
  attr {
    key: "dtype"
    value {
      type: DT_FLOAT
    }
  }
  attr {
    key: "value"
    value {
      tensor {
        dtype: DT_FLOAT
        tensor_shape {
          dim {
            size: 40
          }
        }
        tensor_content: "\013\n\tA\261=\214@\001\322\213@\375\003\343?\215\367\215>\247\032!A\221\010\204@:\230\242@\375,~?v\346\251>\007\177\207?\227P\306\003\022ZC>W\3347A\010+\024A\214=\207@Y\331\013@\030\034\315?\207\321q;\372\351\020?M\322z@5\246\016@\241\315H@,\026\235?(T\202@\320\'\037A\034\254@@\360\005,@\033o\340?Y\346{?\325>3@\212z\177@\000\253\340?\307 X@\365\002\336@\355n\030@\320\304\366@MK\271?9\033SAj\267\017<"
      }
    }
  }
}
node {
  name: "Func/cnn_model/StatefulPartitionedCall/input/_52"
  op: "Identity"
  input: "cnn_model/9917"
  attr {
    key: "T"
    value {
      type: DT_FLOAT
    }
  }
}
node {
  name: "cnn_model/9869"
  op: "Const"
  attr {
    key: "dtype"
    value {
      type: DT_FLOAT
    }
  }
  attr {
    key: "value"
    value {
      tensor {
        dtype: DT_FLOAT
        tensor_shape {
          dim {
            size: 20
          }
        }
        tensor_content: "!\242\006?\360\203\253\275\200\324W>a\023\212\275\335g\350\274\r%\235\2750\3214\2763\266*=\n\351 ?\224?\"\276=\246\227>Dg\343\276O\262X>KA!>)s\036\276}fz\276\321@\244>\327\245\356\274\3241\000\276X\032\305>"
      }
    }
  }
}
node {
  name: "Func/cnn_model/StatefulPartitionedCall/input/_28"
  op: "Identity"
  input: "cnn_model/9869"
  attr {
    key: "T"
    value {
      type: DT_FLOAT
    }
  }
}
node {
  name: "cnn_model/9893"
  op: "Const"
  attr {
    key: "dtype"
    value {
      type: DT_FLOAT
    }
  }
  attr {
    key: "value"
    value {
      tensor {
        dtype: DT_FLOAT
        tensor_shape {
          dim {
            size: 20
          }
        }
        tensor_content: "47\274\275{\341\006\275\324\330\205\276z\331\203>\271X\206=\377\006R<0\267\307\276\2463\222>\231=\302\275 \304\233>w\322\247\275\t\332\240\276\277Z\300<ii\032\274+\202\200\276tM\230>\300\247\204\276o\205\241=\246\024\025\276\246F\374\276"
      }
    }
  }
}
node {
  name: "Func/cnn_model/StatefulPartitionedCall/input/_40"
  op: "Identity"
  input: "cnn_model/9893"
  attr {
    key: "T"
    value {
      type: DT_FLOAT
    }
  }
}
node {
  name: "cnn_model/9907"
  op: "Const"
  attr {
    key: "dtype"
    value {
      type: DT_FLOAT
    }
  }
  attr {
    key: "value"
    value {
      tensor {
        dtype: DT_FLOAT
        tensor_shape {
          dim {
            size: 40
          }
        }
        tensor_content: ">\306\003@\026!\317?\370q$\277\027b\243\277\351\323j?\347\313\234?\310A\023@\252_\205=\242\247\376>P\271F\276\325\377\233\277N\025\032@g\004\210\300\237r\t?3\210\237?\201\333\022\276\251\374\347\277h\211\002\300\224.\264\277\024/\207\300[\363i\277Oj\225\276\237\\\240\276s\360\264@\245\324\311>\036\n8@1n\305?\375\267h?\3556\370>l\031=\276\021~u\276\217\315\013@\030>\025@\021\263\301?\301&\276?V{\026?\270\362\233>\373\213#@{\273\223\277\316\342_\277"
      }
    }
  }
}
node {
  name: "Func/cnn_model/StatefulPartitionedCall/input/_47"
  op: "Identity"
  input: "cnn_model/9907"
  attr {
    key: "T"
    value {
      type: DT_FLOAT
    }
  }
}
node {
  name: "cnn_model/9921"
  op: "Const"
  attr {
    key: "dtype"
    value {
      type: DT_FLOAT
    }
  }
  attr {
    key: "value"
    value {
      tensor {
        dtype: DT_FLOAT
        tensor_shape {
          dim {
            size: 40
          }
        }
        tensor_content: "\371&3?\267<\224?\242\1770?\005\212k?\254\010!?g\230\221?\223`p?-\355t?\001\271^?\347b(?m\016|?\232kj?Um:?\365\023\231?\366\246\201?]\203\206?(\273\177?\340\246\225?Q\232\010?\000\373L?\017\\\021?I\306\221?\203\221\272?\231$I?T\003\227?\356\331\036?t\224\331?\237\273\257?Hj6?\024\257P?]\214b?\237\267\263?U\254\277?\350u\303?\030\312[?\325\033\202?\305\313\223?\324[3?W\"p?\254\005\'?"
      }
    }
  }
}
node {
  name: "Func/cnn_model/StatefulPartitionedCall/input/_54"
  op: "Identity"
  input: "cnn_model/9921"
  attr {
    key: "T"
    value {
      type: DT_FLOAT
    }
  }
}
node {
  name: "cnn_model/9857"
  op: "Const"
  attr {
    key: "dtype"
    value {
      type: DT_FLOAT
    }
  }
  attr {
    key: "value"
    value {
      tensor {
        dtype: DT_FLOAT
        tensor_shape {
          dim {
            size: 20
          }
        }
        tensor_content: " TK>D\203{\276\236\202\013\276\031\036\002\276\0376o\2769}\306>z\342$\276?#d>$n\031>\343m\271\276eI\317\276\356\354P=u\271\217=\304\201\201\273\235z\234=\202\013\341>\001\201\247>ZB\367\276\036\021E\277M\023\276\275"
      }
    }
  }
}
node {
  name: "Func/cnn_model/StatefulPartitionedCall/input/_22"
  op: "Identity"
  input: "cnn_model/9857"
  attr {
    key: "T"
    value {
      type: DT_FLOAT
    }
  }
}
node {
  name: "cnn_model/9871"
  op: "Const"
  attr {
    key: "dtype"
    value {
      type: DT_FLOAT
    }
  }
  attr {
    key: "value"
    value {
      tensor {
        dtype: DT_FLOAT
        tensor_shape {
          dim {
            size: 20
          }
        }
        tensor_content: "\356G\253\277d+b@\202\357\037\300\017hz\275\354\t\\\277\261T\215@\273\354\024\300\260\321\031@\310\261\372\277~\347\355?\254;\t\300}5\223@\266\243\266\277\264\026\250\277\262\"f\277a\355\215\277Fo\020\276ZO\227?\rY\202\277\342P\r\300"
      }
    }
  }
}
node {
  name: "Func/cnn_model/StatefulPartitionedCall/input/_29"
  op: "Identity"
  input: "cnn_model/9871"
  attr {
    key: "T"
    value {
      type: DT_FLOAT
    }
  }
}
node {
  name: "cnn_model/9883"
  op: "Const"
  attr {
    key: "dtype"
    value {
      type: DT_FLOAT
    }
  }
  attr {
    key: "value"
    value {
      tensor {
        dtype: DT_FLOAT
        tensor_shape {
          dim {
            size: 20
          }
        }
        tensor_content: "w\346e\300\031N\264?I\330?\300\3410I\300\\\323\206\276@\237g\276\344\036\212\277\021\364%\277\254h\234? \307\374\277\262\225\036=\'\340\314\277f\217\314\276\277\257\010\277PY\006\277\026\305Y?H\374R\277\363\305\201\277\345j\243?\325\204\202>"
      }
    }
  }
}
node {
  name: "Func/cnn_model/StatefulPartitionedCall/input/_35"
  op: "Identity"
  input: "cnn_model/9883"
  attr {
    key: "T"
    value {
      type: DT_FLOAT
    }
  }
}
node {
  name: "cnn_model/9911"
  op: "Const"
  attr {
    key: "dtype"
    value {
      type: DT_FLOAT
    }
  }
  attr {
    key: "value"
    value {
      tensor {
        dtype: DT_FLOAT
        tensor_shape {
          dim {
            size: 40
          }
          dim {
            size: 40
          }
        }
        tensor_content: "\254\017@\2765t\024>\2032\201\276\301a\022\276kW\223\276\365k\253>?\236\014?\237\356\277=7\332\264\275R4\240\276\001)\210\276\225\362\214\276CI\272>\227\307\271\275U\313\202>\210\3568\276\361\270%\276\346j\254\276\024\206\354<\2646\256>\330\213\"=\273\215\017>Q\033\265\276:K\356=\330\3136=\233\0378>\033\240\237\276\0376/\2764\266\264>\300\016I\275\227\217\255<:\0060\277R\"\304\276\231,\316\274\3350\350\275\276\200\304\276\234\006\226=\241m\224\276n\360\337>\013\325&\276~\231E=?G7?\237\314:\276\267p\017?\223qG>\261~`>aG\"?\2429L\276+\302P\276uf\020>*y?\276\367\357\224=\255\203a=6X\027?\203\300\023?.r<\276\256%T<{\013\224\275\315SE\276F\305E\275\265\231J>\333\241\303>\022&\020\276x\003}\275}1)?\362*\016?^\354\275\275(5\205\274\243_\267\276j\3448>u.S>\220\362\221\276+M\312=bX\271>0\344\201>\214%C>\365\342\331>\3627\002\277C\342o>1\334\243\276\217D\204>\266\252I>\033\357\377\276i\006\220\276\3602\004>\245\342\300\275C\272\205=3u}\276\r\327\304\273\205\210\356\275d\035\t\275\212JQ>fO\273\276_\3572>\343\374\"\276\'`\211\276,\265\276\275\2538\261\275`X\004>B\342\036>\253\321\224>\251\365}\276qM->\237\323\324=w\236\027=\275k\020\276\274\377\233>\216\321\000>\272_\260>\317\232\302\276\312\350\002\276E\3202>\253\331\343=\240\234\222>\345i\253\275;\326\000\276\270N\002\275\330\215I\274\301\3024\276\302O\006\277y\"\317>Vw\337>\032H\241>\267.\305\276e6\332=\205\210\244>\305a\236>\261\236\232>\220\326\201=\346\230\203\276rf\362\276\217Yj\276\254d\206\276\335c\204>\372\002\204\275\270\0026\276k\255\246=n:\335\2751\350\354\2760ux>\313*%\276\212\020\216\274\317/\207\275\274\311\375=A{m>{,\235=\263\207\227:\340\311Q>k\326\201\276l\225\026>B\305\353=sc\035\277\023\366 \277\213\213\031>ME\013>\365\037\330\272\033\315\267>\215BS\2774\321\330>\372\003\243\275w\253\275>\217\275U\276{\000\336>xI>>T\275\277>\343h\203>\316\244\351=\236\320\036?J\373\371\276\364\2271\275\371Ov>\003\256\220\275}\372\270\2747m\247>\222\316(>\270\221\010?\370s\262>\334\216?>\037T\275\275f\307h>4\275\037?\274G\032\275S\006;<\370\2611\2747\257\344=\022\344\301>5\313\366\276z\037\005\276/a$>9\272\206>k4\t>\255@\255\276\336V\327\276\353%K\275\303\"\326=\321\202>>\222G\305>a\221\230\276H\233\323>\036dU\276\211\365\231>?N\253\276\004\305[\276\373\225\213>,\3511<\200\261\251>\2521\272\276A\301I\276\261\274\254\276?\001\345\275*Q\241>\006\226\330\275*\325\004\277\221j\262\275\262\261\313=\256\345\020=l\024\242>IO\254>s\224\223\276$\204\204=\206\345\303\274~X\020\276\007\221\r?B\223\037\2774\230?\276_\333u>rr\275>\023\363\020\276n\222\014>>\235\\\2763\234\251\275A\355\250>\357a]>\014q;\276S\237\251>\366\354\276>\360\220\306=r\177\225>\346c\247>\370\361?=_\031\341>\217\370\026\277\321{\006?\006\220-<\303y\r>\207.F>4\243\376\276\314\253\333>+\216W\276D\263\271>\262\226K>\370\243\031\276w\375\360\276i\213\256=8\256{>\0300@=\215R\261\275\305\024~>b|U\274B\212\265\276h<\375>\350j\331\2769\253\306\276\253\355\257\275ik\207=\205k\327=O\363\006>\014i\016?\225Z\373\276\306ZG\276\241\253\022?W\025l=s\026\036>7j\021=u\220\217>\010F\261>\000!\035\276:P\232\275\001\300\323\275\006eP\276V\375\177\276\272\025->\230\202\234=\221\271\330=X\335\220=\215\202\335<V\201\300>\213\004\212\275\271\373\213>\343#\010>\361\344b\276^2\243\274\230\326\353=\"k\241<<2p\2754K\253=\275Ms\275N\230a\273\346{.<\315\005\200>bW\n?\243\235\206>!\254\000?\000\315\300\273\2012<\2765)\224\276\016\202\214>P\351#\276\206N\253>\326\333\034>\362\233\200>\014\206=><\036\013?M?\034\277\372K\354\2750\203\325\276Sx\231\276\341\035\"\277\374\370\212<lq\353>\207\314\273>\032\325\213=\245\266\306\275E\"\361=\374\225\231\276\242i\237>I\366\n>\324\301g>\207;\256=\237\371#\276`K\340<\315\321y\275\301\224}<c\030K>o\327\233=\320/\347>\257\205\224>\3700|>\324\324\265\275=\200\247>\2271C\276\266n\022>_\245_=\237_\202\27610\245=\270M\002?\306Bb\276/g\t\277\021]O>\305,\206=SE5\275\254|\321\276\275\204\034\276O\037\237>Y\330\205>(8\272>ra\276>\361B\022\277\'\354\240>\232\277\220>\244V\007=\277U#>&6\341=\220\347\321;\001\t\t\275\304\0060=)\003\300>\017L\214>_\357\213\275-\032\220\276\000\217\245\276`\020\365=P<\030?m|\222>\257\315\220>U\006\360\276[\362\024\277%\007=\277\251^\365\276\310x&\277%\363\277\276\341m\260\275\225c\027=im\202>R)\014?8\036\341\275\347CD\275!\000I\276\276\013\327\275kPm\275\231\350\317<\367\324\333\276v\226\313:\272~\347>iT\300=\217\t\350\276\231\274\276<\256\\\272\276E\2234>\247\300\347=\000\374\224=\257f!?\345M\014>\261k\344>\254\3602>\355\026X>\026B#>1\315\301=O\235\004>(\263\205=\202-\235\275l\007!>!\322j\275\322\370\"?\245\231\037?\264\246$>\301\305\223\275\374\313.\276\245\351\347=&C\366\276\222\260\365=]\266\323>\242\213\312\275\213\304\205>\352\276G>8\206\205>\235~\033\275KE\033>\374\257\255\276[\230\t\275\264C\205=E\363\"\276\032\375\341\276\034\177\022?\\\177\r?\2623n>k\260\020?w\340\004\276\314\357\275=\274\2639>\340\030\212>\204e\212>\200\270I>K\330Q>!\235z\276\004\363>=\351\202\316>\373E\214>\005C\036>\375\244\335>v\237\315=Ga\014>\326\000 \274\224\024:>\340$\024>j\377y>\205\300\206;\367o\324>W\307!\276\320\007e>\270\267\252>)\220)?\026\254\t\277\202\205\r\276p\344R>\333\230\031??\202\t\277\264\326\262\276E/\202=J\273\203?6\313;>^\212(\276\214d\033\277+;\330\275e\302 ?\000\205\005>M|,>T\242\270\276!\206\036?Gzc\276\222\\\031>C\201\350>3\375D\276\014\362\332>\213\2721\277%%\363\275\315\216\245>S\353\'\277\035!\316=\024\\\233\276\325-\313\276\367\037\212\276\037\350f\276[\016\243=\347\252\255\276\300\0202\277\0302H\277\200H;\277\355\000\366\275a\241G\277\302\277\361=\nS\314\275\205\366\222=\037\260C?\010\341\205\275\370\353\254\2767\301\020>g+\020\276\276\035!=$\003\227\276>0\014\277\332A\246<\365\263\202>\013\220\317>\276\213\305\274\352d\330\276\202\214\326>\341V\267\274\3743\231\276p\270\274>\214\275\270>\312\256\310>\027\221\247>|\341\222=\312\005&=|\274\326>\201\311\003?8\342\361\274\366\t\237\276\262\355\323>5\212\243>\022\370\271<\t\306\245\276@O\356>\216\022\210>\277\322\256>FJ\221=\271\273\334<p\235\037>e\201<>Q\013\335>\005\006\324=\203\364\213\276\377\024\200\276\n\013\235>W\026\211>\372\n\376\276\252\035\024\2773\342\032=\313\022\233\276\037\016\245>\234\027\345\276\230\036Z\277\177W\013\276j\030x\275\206|1\276\303\r7\274\177\310]\276\347Z\006?\344\340\357\274\0267\200>@c\177\272\251X\006>\206\"\274\273\036\241y\276\315a\005?2#\216>\210\240\223>^\n\310>\177AC>\342\326\006?0\361\245\273mA\203\276\002K\206=^;p>Nq\353>\321\236\365>J\203\243>\336\305v\276\374J\313>K\037\275>\206\361)>\361=\215=-\337?\275t\271\005>\321K]=R]\337\276\256 -\277\034\005\362>\246&\022=p\254O>\014\335r\276c\n\214\276\342\345\247>N\251==\260\316 ?\202\021Z>\350\300\273\276\243\262H>0a\316\275\264\rR\276\232\252\030\276Ei\332\276\356~\201\277e\237D\276\301\2444\277\004\327\036\277\321Gh\276]\214\303>c\345!\277o\330\003\277N\227\344=\211\311\006\276\331}L\277\232Ev\277!\242\334\276\013\271\362\276i\202\t\276\220c\254\276\354\205\232;\273&\022?&\003>\277%\201\002?\014kD\276\367m\036\277\326\013q\277s\013\262>\360H\377>^\240\003?\035F\243\275\300s\016\277o\243\023?\200\2300>R\2636\275\337P;\277\016\227\275\276 \336\316;\221\232\366>\317\267\377\276\255]l\276\\\233\210>#\007\331>\r\260\254\276\0250\325\274\315\034\320\276\364\331,?A\325\355>b\257\">\245\017\033\2777Va\276\000;\037\276\351b:\276\207\3571?q\240\327>\267YE>\377\033\216>\310\177%\276]\3364\276 \306\222\276\376\232I?n\273\364=t\330\365>\214~\315>\361>n\276\333\325\337>\356\355\341>x\244=>\013uK\275\312\225\304>\305\244\334>\232\2244>\261\253d>*^\205><\024\033>\315%r>\364\356\356\275B\274\306>\204\260\235=\240\226%?\205f\025>]\255m>\020\217T\276\322\351\022\277\23348\277\350\241\333\276t\257\365\276\274t\231\276\2226\237\276\202\330\026?\260c\006\277\307W\301\276\317A\237\276\227\227C\276u\273`\277\355/\240\274\341\202\216:\3662!>\370\362\241\275\201\330\275\276\300O0\273\226L\254>C\347\323\276\323\014Q>\353\027\240>\362L\020\277=\021\313\276a\235\300>\346y\312>]\371\026?\357,\204<m\024o\275\313\306\034?\202\025\334;TOn\276\332\034\005\277>\n\037\276\310\205\203>\236\264?>\374u@\276\207B\020\277JX\327;\265\'\235\2753\3358>\037!\256\276%\203\301\276\014\235A>KBx>X\022\277\276\236\333\031?\310V?\277!\217W\277\352\214;\276\375?\203>>\005n>\303\322\213> \000\001\276Q\200\215\276}\250\372>\261\010\243>\023\344\">\004v\370=\3330\305>\2666j\2763\004\t?\202\313\204=\203Zb\275@8\230\276\243\2175\276!\234\276=\366\3460\277\243\026d\276\247:\204\275\342\275\207\276>\020\202\275\370\\\323=\325\007\325\276\274Rb\276YJ\353<k\262\220>\331\0352\277\340\3203>]\366\325>&\032A\277S\341d\276D\234\327\276\206\\w=t\250\217>\026\231\225\277\n\222\016?\370\241|\277\362\222\217\276\224\200\031\276\251\317\224\276\r\313\2239\211\013\345\275NvE\277\251 \002\277\251\361V\277\002\362q\277\3366\215\275\221\021\310<\344\002\026?\250\341w\275\335\364\006?\227\376\270>\227\033\005\276\232\327G\276MJ8\276f\334\223>o-\036\277\357\351\252\277\347\213\271=\3317)\276V\247\030=l\300\217\276\363\022\267\276\3363\350>\277\370\031>&$1>\310D\275\276O\231\207\276C\tr<:U\212>\240\256\277>hw\243\275l\262\331>fK\271>!\267\326>1\010\304=\317\276N>~\t\277=yg\245=4;\035=\345\326d?\313a/?\305\255\010>\256\211`\276\213\031\261\276\320\264\262\276\202\337K<\301\241%>_\225>>%;\327\275\220b\251\276\033\001\227>\327A\303>\017\017\373\276\034\004\250>l\"L\2760\324\371\275\0350\215=\257\323\014\277\206\2550\277\372\330\325>\350\026\241>k\335\244=u,\001?K\317\337\276z]\357>\207Z$\276X\033\253>,\376\276>\214\201\211>\224\267\233>\016\203\312\276\327\022\353>\344\207\237=\017\256\247>\003\277\002\271\322\256\317\275a\323J>\001V|\276w\227M\276\264\305\314>\271\351\350=\2275\233>\340\004\354>\354\333x\275!\036\235\276(\341a>\027%:>\274\221\024\276V|\377\275\2148\021\276\357\303\001?\377\221\365>\356\250{\275\227\267b>\260\211j\276\n\372\002\277b1%>y\375\304\274(\nx\275\254\"\001?\306\370\274>\246q\231>\t(\006?\0063%\274\261&S>\215\226\267\276\210\306\272>2k\021?\001\231\002?\303\032\322=\227\025\233>\0074\310>&,\006?\322N@>\371\317\227\275{(K\276\314Wj\276\363\376X=1\210\036>\030\341\003?i\272\261>!\325\345\275\307\215\225>\301\312\313>*\340\335\275\313N\271\275\211\243\271>I\260\001?\355\311\\\275\3317q=}/\376>r\276\375>\253\206\306\276%\002\201\276\030\304;\275=\2747=\303\350\323>\242\205\000\277\362\030%\277q\031>=\2565\353\273\346\254\241\276\264o\220>\003\263\335\275\311\363:?=q\245<\352\300\230>\214r\024\2775\254>?\2736\006\276\275\214\033?D4\253>P)\343\276 \262-?\270\257!\277\"\362E>\345tR>\367\236\307\275~8\210\276\366\276\212\275j\243{>z\306\244>}\004@=jQ?\276\025-\206\276H\374\275>4$P=\323\357\253\276\377B\235>\206\314,>\\)\036\277-\224\261\2753\210 \276/\207\024\276\000\354\316>YG~>\207\240\004?|]\257\276\302\370\010\276\21276\277#^\272>_\007\253\275\243\267v\276v=`\2762\027\264>\344\3549\276\031\232X\276\374\276\231\276G\377\014\277\245\277\222\276\373{\267\275\"\204\316\276M\240\372>\340\001\372\275\212\300.\276\033RZ\276\003\312-\276J\241\207\276g\206\024=\335\364#\275\235A\000\2762\265\331\276\236|\317\276X\275\"\276O\354\233>\257\035b>\376\344\020>\0057\211\276\003\342n>\354\224\205\276P\031\253>\327\265M\276\235\363\223>\241\2402>L$\027\276\225\336\016\276\211\373\273\276\260\347\217>k\211\263>P1!\276.\037\377\275$\021\226\276\340>\001\277r\3650>\01786\276@\301Q;{Q\322\276d\323\340=S\264\030?6{\372>WR\010\276\027Q\r\277\214\300\334\275\025\020V>\234\032F\276@j\005\275^\204\343=\320r\242\275\225)6>\331\231|<VP\263\276\305\205\235\276\035\214\005\277\201\266\014\277\301\264\177>S\355\202\276Y\330\200<5\235->\326\016\315>\231\243Q>^\223\252\273\217\n\203\2768^\367>\373K\247=gI{\274a`\261\276<\352\276\276.\336\252=5\253\335>\202\r4=\035\\U\276\231`\267\276)\227\237\276\005\236$\277\371q\246=\272E\215\274\246\343-\275\336m@\275\030&M\275%@\315\276\271\224}\276\243\213\362\276\014\205\032\277\341\327\257=\210,?\275\244\331B\2768\005\004\277\354\351\330=\t\203\r\276_\010]\277\210V\033\277h8\242\276D%\261\275\206\240\357\2741Z\300\275\351\203\233\276\312D\205=\243\316W\277\035H\323>\227C\201\276\000\307A\277\361>\246\276\330\330`>\254W\265>\275\212\340<\310\3136>\247\337\334;\2310\020>!\361\250>0:\244\276\231\257\341\276\350~\210\275Q\370u>+\235\333<\371\214\030\277<\244\313\276e\266 \276\005\3369>7\021\014\276\247C\250=\221i\203\276)\211\207=r\212@>\370{\242\275\225X\273>\354.\255\276\364L\333\275\240\236\200\276\3147\"?\006\347\214>8R\223=\016b\006>\376\032o>\200\220\033>\343\017\001;\25205\275\350P\016?\372-\026=\247K\267\276\026*k\2763\361\262>\326\006\305>\270k\002\277b1\215\276\302\200C\276\332oH>I\tD\276\352I\230\276\207\3766\277;\020\237=\356\332\265=\255\274%\276\226\312 >t\337\203\276\250\231X>\033\257\241\276x\265\324\275\317\0051=\271I\r\276\0239\217>\225\r\010?\223F\321\275s%+\276\331\253\316\275\267\260\226\276\036\204f>\257\014\347;\037\022\313\2767\224a\276x~M<=8P>\312G;\275w\251\250\274\232N\251>\025\220X\276UgI\276\271@\213\275\325\230\336\276\253\227+?\235[\251\276\321\345\324=\266\322\024>\204\235\373>,7\r?~\253\205=\370\310\002=9cJ=\345\247\t?\253M\250>\220y\017>N7\311>\203D\240>V\205\220;\010\345\002?\252\034\233\276\275\020h\276pl\306\276\026\330\310\275\320@G>L\276\000?\371\340)\275VK\220\276~Y\206\274@\257r>6/\203\276\273g*>\226\372\262=\322\004\203\275\3722\217\275\023S\353<\341\366\252>m\354\245\276\205\351\335\276\206\205\037\277\241r\256\276.\324\273\276`<\215\275\2002\242\276^\255\304>\357\363;<c\240j>\372\0250>z\210:>\277&\016?wR\222\276x\243\234\275Z_\221>\000\356\220>9\031\334>\203Uc\275g,\032?\265Om\275\246\365\026>\026p@>\304\027\366\274\207\203L>\036\367\374=\212\032 ?]\205*>\321\274\203>]\202^\276\014\236M>\007\312\033>\234!\210;*\357\371\276m\020\210\2749\265\362>O\363$\276 \211\235>\223\347\333>\"J\010?c\277\'=\0336\315\275\032/\266=7\r\211\276\033\314\251\276\324s \276\022\307H>\212E\317\274\247\332\270>\313S\344>\362\342\303>\253ON=\330\225\256\274A\375\256\276\260\275\276>\204\273\207\275\363\"\016\277\342\324\313\275A:\007?\377b\216>\365\020\350>-)\010?\010*\316\276\033\255^>\314H\301<\376\345\032?\306\344v\276x\311\177>A%n>\322[\314>\020i\n>\031\254\262\276q\2647>[\374\343>.\250\201>z\"\245>\313\241\326=\300\242\371\276\242y\320=\256\351;>Q\221\006?P\233\031?\217\357\360>\350I=>\007\367\t\274d\030\036>*\017;\276\271\307\311\275~\032K\275\231L\"\276\242\2064\275\007\356\336\276\203\235\260\276\257\030U>{\222\340\275\327\367\001\275?X\236\276\256\034\267\276\010\221\000>\"\203\316>P\225\347>Fr\007?\233\034\261\276F\314\032=\201\372?\275$\343N>\250g|>\003<\341<\244a\026\276\343\336\335<g\276\267\275\350\301\226>\353\345\224>`R\013\277\275\237z=\276\2405\275$\016\213\276\360A\004?\336\317o>x\013\274=\241\207\375=g!\336=\245\250\337=\207\240\007?R\237\215=\222\271q>\324\223\200>f5\373\276\025|\022?x<\225\274oy\306=\030\035\037\276\364JY\276\300\307\202\276K\336N\276r\014\024>\327\207\316\276\205\267+\276\247\337y>\350\372\251\275\370+\275=\350~\221\275\343\033\335\276\177Od>[\314\'\277R\370\344>\034*\014\276\365\305\223>GY(>Lh \276t\303\306>\210rB\276p\335\'>#w<\277\343\204\003=\273V\253\275\336\317\r\276\002\371\302\276\317D\r>(U\020>\273\306\203>\330\002\330>sv\032>t\343\355\275\301\237\031>d\223%=\253\254;=\260O\t>LyB\277\217>\241\276\007\373c\275\220\257\357\276iMa>\232\240\276>k\344\307>\327|\317<\303\321/\276G<\017\276_\007\002>\321\227\261<\263\345\277<\272s >q\rf\277\305\005H\275^Yw\2761m7?\0244x>./\303=,\352;\276XVb>\202\030\233\275\027\027\303\275\030\332\314>\250K\372\274\330\217\254>\240\337\217>5\242\311\275\234\035\363;;!\207>\t!:\274\025\021\032>\013H5>\374t\214>\321\271t>\310\n\236\276\022\375\002?\247[_\275Zl\244\276\205\022\007\2768\2739\276EC\222>7m$\277v\207\303\276\257\326\037>\242-5\276\315\260\244>j&s\276\257\265n\275\356KP>GN\026\275\251\373\262>\214`w=\266\245\217\276\014\n\026>\036\342\245=\371nF>\352\344\000>\025\223\323:\347\\8\277\251g\252\2763A\020\277\332\267h\276\302Y\261;\362G\016\276Y\347\030?\344\212T?\244I\206\275\1772\240>\016\373\202\276\001\203\221\276\004\237.>\346\223\223=\332z\014?\362\307\304>48\341>\266\370\340\276QJ\206\274\217\355V\276,1\301>X}\256>\375\321\356=\324\252\256\276~\256\236\276R}L=\236[\024\274\267\237{>\224E\303=\005(,\276\241<%>\003\342s\275\330\356\254=\265\344\023\277S\333(>a\274\020>L`i\277\222\336\247\276\321u8\276)\202\272\275\320\256\256\276\235\271\014=\033\234g\274\342s\005>C\214=\276\260\2229>P\375\264\276]*\302\276\367 \246\276\307\232k\276l\016\200\276\235\347\262\276\374\340Z\276i\301\234\276{h\224\275\201\215A<6w\317\275\334\234\n?\335>\274>m\020\201>\021\241h=\013\216&=\035Y\322\274\373\355\252>\034oT\276\024\365\027?\231\344\322=,\245\255\276\315\336\235>C\n\014?\225H\362\276\211O\222\276O\327\217\276Kh\213\276\211\262\021\276AmN\276\212#|>\262\340#?+\261\211\276\270\022\276>\230\031}\276\030;\014>G\343;?`\315\222=\3300!>WV\224\276\246\0360=\237\344\242>\222\335\204\276\333]\026\276\007&(\275\020\323\033?+\231\'?=\315b>=\357\303>\332@\224\275\013\254\025>\"fF\275\264\233\215>\340\"e;\336)\002\277N0\031=\271\014\360>R\307\032\277\342\276\213>\343\337\267>\212\331\233>zV\352>\177\302\352\276\026}\305\276qRD>\250%\247>j\372q<\221e\261=\323\013\033\276oc\001?\305t/\276\336w\256=\356\346R\276.\203\002\277\252I\375\276\261\352r\276\226\210\235\276\223,\252\276\370>\003\276*\270\346>T\205\366\275\034\305\\\276 {\013=,B\237<\372\255\220\276\315\356g>\361U\017\275\230\017\355=\0018+>\021\362\232>mQh>z\032\374>\367U\330\276\314n\330<\004\347\"=\321A\337\276\367D\242\274qM\276>\265\257\361>\227J\373>/7\217\276\255\317\342\275\023K\333>\370\310a>#?6=\246\321\357\275\264\215,>\353\304\204\276V\265\035?\rJ7\276\313\265\310\276\035{\263>\365\213\326>)\207z\276\201\365u\275\354\225 >\034\273U>/9\215>\017]X\276\027\316M\276,\255\324\275\237\361x=\2620\020\275\\\t\343=I\010\240>\331)\327>\317\354\036\276\372\236X>\276\225\205>\022\327\235<W\243\311\276}Z\272\276\0317\337<\364]\270\275\036\205\215>/\216\361>\376\274\220>!\364\225>V;\314>\203\177*\277\255\021\232\276\217\307\202\275Yk\300\276\241\367\267=\235.\002?Y\024\301;\375 O\2751~j>#\371Z\276\237$\216>J*\'\277"
      }
    }
  }
}
node {
  name: "Func/cnn_model/StatefulPartitionedCall/input/_49"
  op: "Identity"
  input: "cnn_model/9911"
  attr {
    key: "T"
    value {
      type: DT_FLOAT
    }
  }
}
node {
  name: "cnn_model/9815"
  op: "Const"
  attr {
    key: "dtype"
    value {
      type: DT_FLOAT
    }
  }
  attr {
    key: "value"
    value {
      tensor {
        dtype: DT_FLOAT
        tensor_shape {
          dim {
            size: 1
          }
          dim {
            size: 1
          }
          dim {
            size: 31
          }
          dim {
            size: 80
          }
        }
        tensor_content: "]\'\370;\370\267\231\277\237\361\265\274\372\362\313=\256\334-<\266\025|>8b\275\276\320\274;>4\311g\275\250\355\257;4\372\243=T\323\256\275j&\003=\216\310\226=\350\357\317\275\317_(\277\312@L>K\270n<\334,\220\277#j\030>\230 J\277\246\374\'\2765a\221\276\222l\036\276\030\345\201>p\230T\274\270\250\300>\206\373\010>\3243z\275\256\250\257=\374d\237\275>\365;\273\023\177\256=\230\266\033=\337e\230>\214*\367\276\022IJ\2779\275\206<M8Z<\356H\205<\305h9\277\333s\362\273T\2260>^\357\264<m\373?>d\'\302<\245\313)\277-\2275>l\027\263=\350\316}\275u\314:\273d\3419\275r\365\\=6\327\032\277\330]\230\277\253/\367\277L(\261\276\361e\r< \270\312\275\"\331\253<\242u\271=\241\345\007>b\365n>\303\225\303<\326\320+\277(w?>\302E2>\323\370F\2765\364\315\274\355\031\032;=\313\222=i$Z\275\333qf\275S\003\264>P\347\020>?#u\275\322\304:>\376\"\033\276Iw/>\003&\250>\004\020\261>#\023\200\277&R\210\277\244\366\364\276;V\241>\035\202\376\277\000\360\003\277\2263\242=\023t\020?SO\350\275\333\316\220?6\267-?\205^E\300b\006\235>\333\n\227\276\354i\020?\270jP\277\220n7=\230\375\201>\007\374\n\277\364\247\013\277o\342\277\277\211\204\367\275\306\271\261?U]@>\371\0270\277\034\'\242\276\010#\204>\rf\033?\243w\357>\246KB\276\373k\306=\302&\225>\332\343\253?>\307\006?L\251\304?\344\322I\277\225\331\255>\314x\210=\240\221\010?\225\315\257=\\*\211\274\300\341\266?\244\202\275>N^>\276\270 3\277\362\013\265\277\220\234\235\277\303\000\326>\033}6\300\2742\264\276\214\325Q>\324\005\327\277\276GQ>\372\247\222?\234\320H\277\302R\t?\251\353\034\275\031\210\226\276\274\313\237\275E$\226?a@\264>M\215$\277\252\343\353>\202W\n=\007K!?}\326\301>\207v\354\274Y\001\311>(\257\213\276o<\264=(\257?>:\353\267\277\257\304\236>\223O`?\325\372\200\275t;\265?\366t2\277h:\022>q P\277\205w\201<N\213\276;\315\327\266\275\272\270H\275\210;\234?\362\213\241\276\350;\340\275\366YN=\364 I\275\342O\243<\312\232\321=\203)\375\276\316\200\377<^A\231=\321\270\367\276\256\373u>s\225\221\276?\220\217\274\000\340\362\276s\002r\276{\314#\2763Z\236\276+\220\213<\337\357E\276\372a\253\275\016L\233\276\324\213\031\276\252\206\226=\341\206\261=>a\333\275|\310\323=}\320\307\274\264lN\276\213N[\275<\331\000>\230MO\275\333\332#?5\300\217=\034\345\230<\177\021-\275z\303\017\277\370\300\340\275\215\030\002>}\305\323\274\tF\207\275\277\324F=L\354\352\275\323\375\353=R\361/\276be\340>\266\362\363<\356\340\263\275S\312\216\275\347}\330=7\214\014>P\025\277\2726{M\273pA\002>>u\340>Za\265<\2422\023=\376\371\245\272\202\300@>\022r\351;\353\021D\275\300Rp\276\302]\204\276N\303\215\276p\320\037=K\370\006>w\310\371=\000\r\274\273\334\211\030>\370r\347\276\'\035G\276\032#\'\3003\324\377\275\370\370\345>\211\007+\276\354t@>\002\305\233<\334\016\212>!\356\026\275g\312>\276j\211B>\272p\206<>\035\353\2740\216\250\276\201\227 ?LWm>-\275\272\276:\273\023\277\206\372\010\275M\250:?N\017\337\2755\261\341\275Wa\002=\367\360\002?+\324\030?\321^\270=\340l\"?\323\223\254=\315\236\'\276\010\377\013?\266~\007\277\2201\010\277\363\305\210?IHE\276\253\356)\277\360we\277u\r\034?\373\031_\2759\r\034>\275\357\320\275\016\250\356\276\263@\220<\305\202\226>\255V\005\277\271\261\212=\223\225s>\253\370S>\357\005s\276\r\254i=NJ\214\276\026\202\226>%\035\000\276\022\353g=\324\007\235\275\203\0205\276\320S\350\276G\317\256\276}YK\275\244\326{\276\037\376Z\276\202\356\364;\21509\275\005\n\017\277\360d\252\276\221E\325\276*=\340\272\243\016\352>}^\316\276tD\375<\337D\333\275\2312\270=l\"\325\275!o\371\276\263\317\t>A\342\262\275\342\366=\276EB\013=\032pR\276q\233\033\276\235N\034=U\240Y=\327\252Q<\342?,;\263d\221\275\347\235J>\220\321B?+\304\313\300\276\313 >F\226y>G\033\355=\227\272\355\275\323\200J>\354\343.>{\245\347>\374\231\376\276\317\376\213\300\025\013\365>3-\340\277\00073\277\362Tj>\263\373\333\276\303V\013?\315\314\201?e\256N\276Xld;\240rg\276\214\316\335=&9d\277Q7\320\274f\017\t>\336\342\">\365\371=\276\'\010\017>kf\207>\200E\212?\017\253\260>\005\004\030\300\373?\272\276\235\357\370?\037?\034\277B\021;>{Dx>\204\336\032?\027\245\232>\375\010|\300\373\353\367>\273\234\363>\020CP\2763\301\201\277E\304\236>\024M\353\277\340=b>$\366\240\276\317\013\227\277\347\322y\277\000K9?5\207\030\275@\261\246\300\320\304V\300lcd\277\354\330b?\022\316>\275\270/\030\300\3561\353\277\266\365\261\275\324\003\326\300H\310\216>Fq\233\300\223\336\314>D\231#?\341(\211?\247\006q\276\216\223$;[\306*?#\226\233\277%\315\365\277\204\310,\277:\364\014>\332\005\365>*M\017\277\266#H?S\257\023>\3349\365=\207\003D?\303\362\372>M\306\352>\346\275\036\276\2033+\276F\256\217=\361\344\350=\242\032\374=\246PT>\360\200\231\274\274\365\322\276\364\205\323\275I|\341\276\013A\273>\021\322,\276\210\275\355=\255\372\343\276\317\225p>\303\346,>\262j\350<\340F\221\274fE\005>$\2411>\014\200\214\275_WS\275/\320M>\250\202\357\275\004H\246\275\005j;>~\342g\276\030\350%\277W~3>LM\034:\225\324\365\276wA\030<\2177s\275u#z>\373\321\356=\371\023T=\355\354\263\2755)\316<\252\034\351;\247\300\311<0\010\240\274\360a\212>\336\366\216\275\010\366\360=\247\307\237=\003\265\274\275/6\302=v\220\257\2767\236\000>\206\326\t>\'\014\366\275\245\\\320\276\035\327r\276)\206\227<Sj@\276^\331\201\276m\352\001\275\226q\262\276\252\321{>\023\'\2018!\275\245\275\262\255\025\277\2623a>c\363e=\314\274\230\276\361\263\001\277\323-\025\276\370T\202>\000\0019=B\372)\276\360B\r\276M\345\204\275\201\005\222\276\371y\326\275\371\371\314=\361\277\303=\227\314G\274\227\267\005\275,\214d?2\372\217\276=\323(?\024\217E=k8\353>\373\325U\275\204\231U>q5\000>\001\200-\275\266{\323>\330&\003>\363r\037?]4\t\277\230\n1=\223@\264\277\364J\204>\36092=\246 \037\276\006\034i>\330{\300=\241\232\363\277,\270J>\037\002>\276[:\204\275\217T\013\276\017\363\262\275\003(\260=\243A\347\276\354B\370>\363\363\330=\020\252\276\275\016\325S\274\254\201\226\277\024P\233=\202\":\277 \232\376\275\3522\021\276m\223\270>\361Id\276k\241\201>*R\217\277\024D\330\276\366\247\256\274\266\332\224\277Q\204\262>\354\024I\300\367\205\223\2773\357\312<3k\263\277\352\201\312=\331S\226\277I\213\225>\336(\307\274{\010\\\277@\336\033\277\017\321h>V\r\374\276\316v\341<=.\010>\275\362e\275f\207D?\025R\226\277\177\267\037>\252\177`\276j@k\276(\226\177\275\216u\320=\304\210\364>\351\n\317>J\226\204\276\373\377\210\300\325\304\001<\263g\250\276?\371\262\275\371T\310\274\341\200\t?=GU\277[\030\026>\317\252&=\2178\311\275\370t\375>\345\347\206\275,\263\324\274\026u&\276k\335h>\314v\377\275tH\025?\004\234\310>\341\025\014>j ;>\257\345\320>\303\363\033\275\244M-\275\004\2775?z\313P;\316\004\332\275\007p\334\274Sp\203\275\306\370\315>\353\242\254>E \320>\037\353L\276tn&\277:\245A?j\233\232\276k\220A>\'\344\302\276m\023\215\277\014\374\312;\036\233\264<C\376\356\276\232\201\220\277!U\020\277\354q\350\270\352\004r\276SH\020=\223\236\005?RT=\275zV\215\277\317\347\222=\246\r\236\274\340\017p@;\260\227\277fQ\034\276w\n\002>,\252\344\276\351\316\014?\231\347\363>\300&]\275Y\014\352=\310\010Z?\374\304B\276\335\362+\275\257e\'\277!\212\246\274b\335;?\274\241T>\237\251^=\350;;;4\246\222>\344\001\r\275f\320\'>c\002\202>\243\202\370=H\343\316\276\r\377 \2759\376s>\364\303\275>\216\344_?@>D\276_\365\273>.\204\316<(s\035\276g\310\\\277\360\0235\276\363\335\322\275\274\343\t\275CZV=b\311w\276\207\244\203>,\323\000?r\320@=\332[#\275\014\026\006>\023\375\264\276\255\2013?\363\344\023\276\262\251\004?(\251\317=U\361\023\277\367\373\261\276\314@\036=\226\337\317\276\200\346\355\2753\210\"=\224\235?\276<\207\204=\'\005\326\275\332\235\023>\377/\204=W\365A\276\305\035\213\276 \225\016\277_\000\245>(X\355>\335\004\366\276\247\311\035?\024\336\253<e\343\256>\355\373\274\276\240\316\245>;\032A\276\244\274\337\276#\2378\277\373\352\265>\224\366n\275\035\266s?\010,\301=8-D>\224A\352\276\254=\276<\t\2718>\264\274\022?\\\3738>\210q\276\276\201\3471\2762\025G\277\033\243\321\277\363\233\004\276\365\324Z\275\007\261V\277\323\222\205> \342\016\276\302\244\006?\305\213\n\276\270l%=w\336\204>\020\337P\276\005\336\360\274\315\226\237\276\231lq\274\231\217\322=\216\177u>\232\364\235\276wpw?\245\321\201\275\210Y!>\311\014R=%Dy\276.\334\014\276`r%>eE&\276\330J?=\2745%>\357\035\254>Z\322\231=\032*\367=\3553\241\275\271\331R?\342\361|\273\373\2002>\231V\250>a\006\033<\263\275\336=?\227\024\275\322\200K>\323\214\033<\220\372>\276\217e\247<\362};>\213-B\275A\2143=Z\314)>\313\313\364>N\224\314\274\220l*\276\356\355\321>5\241.>U\257\310\276\351v/\273Q\350\360\275\307\360.=\367\277B\276\334\330\340\276\375\261\023=\212TL>\024\227d\276.\305\030>\004\231\220\276\235\232D\276\0141\304\276u\266\251\276\017\036\361\275\241;=\275\242\355\000>\374\002\002>\'\360\033\276j)\362\2754\017)>:\314\212<\213\317\021\274g\243\220\274\216\205\002\275\361\212B=.\021\225\276+|t\275R\367\034>\340R[\274\t_\250<\\T2\276\370H\211\275\325}\317\274\200\277\004\275\341\032\027\274\340C\305=\314\025]\276\216\250\246\275\0143\354\275\307}\351<K\274\232>\260sA\276r-\343\274\317N\212\276\342\251E=n\327k\276\302\233\232<\020o\201\274,\226 \276\\\366\360>mO!>Ns\221<\303\214L=\301\347\034\276\245\370T\274C\005\217=U2\016<\331\000\317=Ie\351=\022-\330\275\202\214Q\275q\347\267=\352\250Z:1\305\325\300\234T\327=\036\274+>\205\023\002\276\344G\303\276\r*H=\032\347\373>i5\317>\335vJ\277\273\207\211\3007l\347>\231\\\350\277\r\346E\277\276Z9=68\223\275\332q\242>\325\275\206?\233h\226\276\307\033$\276\027\335\260\276\3664\027>\376\005m\277\210\205\033>I\211\010>Z\264\300=\030\212\242\276M\226f\273O>\270>\nq\227?+\222\234>\241!\014\300\203\210\010\277\374\235\340?\254\010c\277\265\240\002>\352\206S>\350\236\n?^\005\224>\\\273w\300\227\206\335>l\205\352>u\275\366:j\257}\277y\210\033?\352n\345\277\253\242\331>\235\240\341\276\247\360{\277e\350\204\277\2424\300>\211\343.>\345\376\244\300\367lU\300\231\311~\277\221\236M?\343kE\275\333\343\022\300\017\267\013\300\360\305V\276J\204\325\300\320\003\364=h<\227\300\233\243\000?\034\251\312>a\227\203?\337\3422\276\314\026\211\276\235\215\366>\201\026\234\277\201\263\006\300\213\'k\277\226\247\354<\020\301\317>\354\244m\276\365\201k?\026\321\014>m\266\214\275F,M?\\:[>`\2056?uZu>?\320\036>\375\220\357\275%\206\031;\266\234\375\275\232c\301<\370\202\022<n)\236\276\2248\222>\205\373\032\277\336HO\273\304\2644=n\323/>\335l\220\276\354\367\222>\347N\007\276\343\301\217;\2120\361<\001\376\021=lWQ\275\250_\251\276\227eS>\262\027\000\276F\255\177=\341[\252=\232\376V\276\376T\373\276\021\256!\277\327\254)>L\371\214;yu\r\277\232\272\360<\221\366C>\036\025\016\2765b\265=w\225+=\217$\023\275\014\025\262\275\272X\223<\231\nD\274\350v\000\274\250\261\357\275Z\302\314\275\247p\233\275+\201\332=a\350\335=u+\211\275\341W\207\272\027\330\022>\277\336j\275\"\217\021>K\315\330\276\372\303j\275\312[\256\2715}\306\274\3446\254\275\374\033\216=\266\n\227\275\312\205_>.\317:\275\220\277`>\3431\341\276}\257->Y\213\020\276\302&\310\276Df\004\277w\352M>\352\007\371\275\004\211\371=(-\275\274\2564\224>\317\347\246=H\355\237\276,\263E\276\004\376\347=\334W\013\275\263\0262\275\202uM\275{5\\?\253C\265\276N\303\207\300}+H>\254#\252\300{\370\270>2\332\277\276*4a\277\372XY=\322\023\377>\010xU\277\231YH\300\300\233\210\276\325q|\274\005O\366>\321\347\345>\256\251\215>S\312\233>TL\374\277\354\274\310\275\356\261\237>\210\353\345\277\204HY\277\346{\303>\226\315}>\223,G\276\336\215.\300,\263\224\276\374\030\365>H\243\">\'\032\204>\214\010\247>I\244]?\321\316\300\277^\025\273?a#\312\277\243H.?<tR\275\362\034\235>y\252\010\277\321\332&>\206\"*>\253\014\227\276\254h$\276:u\014\300TO\261>M\362\'\277\331\001\247=\350\3611?\217\357\244\277\270\031\032?\212\353A>\231n\277\275\326\350\253\277\3145\266\276\005\216%\276\221.\316\275\212\177\302>\301V\020>\021\254?\300Z\267p?A\271l\277qms>\2027\n?\202B|?\347\036\377=\312V\361>\324\032\262\277^\350\252>\236\365\256=\204$\">X\3629\277\014\360\311\276Q\365@=\250\372\016\277e\234\260>b\372.>\325\366\310=\337\033\222>\301\300T?i\300!\277\035\362\242\277l\376\244\273\022\367\364=\255\032\235\274\316\036z>\226\307\212\275\253Ip<\013\314\240=\201\"\250>\372\322E\276\004\272\023\275\366\006\003\276\266\317R=\t\264\240\275\352rR>N\224V>x+\242\275\361$\202=\311\320\220\274\307?\210\275^\'U\276\363u >zhs>d\243z=7\305\037=\257\304\242\2765\266u>S\322\324\275\324\277\017\275\315\201\334<\372\373m>B-\267=\nx\214\274\203hr>\000\006y\276\310\221\245\275_\373\261=\010\226\221>\224\216!>\226\236\216\273b}\224=F8\346=!M\207>3\230\242\276P\253\255\275\003\200\372<=\261\321\274\221\213\365=\202\301\000\276Su\345\275\024!\016\276\r\265\241=\3726N\275\317\030)>\231\270\233=D\010\252</\t\346\275(\017G\275\021\r\204\276\002\354w>\247-\201=\005\201\335;h\007\036>w~\277\275\356\241\347\274\370\030\202\275\326\206{>\346\"\017\276Qy#>\013\313\315=C\016\021\276?r\031>\260\232\204\275n\247\014\276\260\373L>\013\277\005=\327`i=\362\3772<>\010z9\017\264a\275|\316\371=\373\017\335>\242\"o\274XB,?fIg\275\356\204\005\2766\316C\277\313`\245=\'\372\217\276\367I<\276\261\305\251>P\034\316\276\"i\205>\352\032]= \374 \276\036\027*\276=\337H\276\220;\231\276\301`\336<+\345=>?\001\301\275\220\314P\277\275m\311=\311\353\251\277x\322=>\352\200/\277?t\035\2774\027\016?\336E\272=\257\301\217\276\0104\325\275\002\2678?\3636\211>\350\374\211> \031/>\000\236\206=\246\007E\276,\005\244\276i\213C\275\367\352\004;\364\255\356\273\202\"\322\276f?\344\275\237<@\276\352\232\r\276\324I\304=iP\306=\177\224\325=\016\357\253\275l\3353\2734\355\250\276\266b\003\275\353v2>\346\305]\275\226c\207\274\353\216\253><N\257>\335/%=\014\035\211>\233\010e>!.\351=\251\251$>\302\366\222>K\315\003>\004\3522>\212\2229>p-\364\276l-[\275\202\212\200=\316k\324\275\302!\031\275\255\260X>\251R9\275\300\034\336>^\314\224>\377o\231\276\036l\024>y=\257\275\031\206\032>\334\013\033>\035\251\332\277rE\000\274E0?>)JT>\274V\335=%\361\311=^\227\275<\252E3?\366\211\221\276}n\301\275u\t\272\276\243l\325\275\2734T?\2462\034\276\356H\245>\226\214\236=a\252:\277&`\223>\302?z\276\360b\353=\036\016{> \211^>Zk:?\233\r\215>\235\0163?\022\311\354>\326p\262\275\037\021\020\276\325!\002\275G\210\024\277\2047\n\277\225\337\002>z<C\277\016\2237=?\333=>\217O\017?h\243\356\276>H\305\276\245\027\022>\223\000\002<C\033\363\275\237\232\314\2762[\303\275\022\223\337\276\024H\256>\255\333\223>\321L\026>e\264\n>sf\356\276b\373\330>\032\0313>\237\275\016>\004\3533>\351\363\206>\n\004\264\276#8\n?\215\\\357\275\r%\202=\356DE\276\352\367\303\276\272\351\341<\274\212\007\276\330\237%?\326\243%>\364\005&\273(\343c>\021\252+?\2619\362\27565\206\276\352\'\357\275\245\207*\276rf\004>\237\200\017>\361\017K\2766[\037\276\315~\207\276\n1 \277`\246\235>~\321\205>\227\030\341\276\352\372\345<oKr\274\215\247\025>\217\263\023<\326ww?4gl\276!\256\022\277iS*\276\321+\t?\266\340\003?\321\2556=\310F\220\277\213\300G\274\211r&\277\212\006\026?\023\355;\2778\235\341>\207\277\014\277\247\220\325\275\325x\240\27476S>\314\204\216\276\271\366\363>\004`\033\277\301\341\024\276WG\346=\320\254z=]f\355>\023B(=\253S\007\277\301\345\027?bv\350>\360s\343\276\236&\004?\347\227#?\373\220\362>\271\346\345\276\262\343e>]\177\336\275G\317\341\274\230B0=\314\320[=\246\255\365>\3537\026\276\020\0378\276\205\'\031\277\361)\230\277\247K\323>\000j\300\276>F\\=\266\t6\274r\303\024\273cv\301>\200\347\310>\027\251\332=\374\355\352>\332\222\224\276^{\266\275\371\323\241\276\017\3325?z,U\276s<?\275\036^!>V&X\277\365\375\216=\273\214\267>&\255\001\277\354\2325?\"h\'\276\336R]>\005\306\266>3\333\017>\364(\226=O\212V\276$c\n?Iu\037\277\376v\322\275\223xP>\375\205\246\275\241\304\214\276.\321\004<\336ui:b\206\314<\301\327\244;{$a\276\243?}>\006\374=\276\336d\275=`op\274\352\316\271\276\336_\207=\364\221\242\276\267}f<\031ZP<7\005\n\277Y\255\254>\276e\330\276Z\257?=\2025\333;(\223\026\276(`\215<p!\207\2753\\\003<\340l\033\276\'\263\222\274{\010^=d\373k=\257\334\366\275J\240\260\277\250f\'\277\026X\013<Y\300\002>LB\031\276\0012\235\274X\025+\275\373\245\364<\351\"p<\336V\205>\375\370\275<\304\300\254\273O\025\353;1\203\202>\250\353\322<\350_1>\243\275\307<aw\257\275\363p\371\274\036$f\275\3274\274<K\241O>,\273\n=\246\206\250:\364|\025>\254h-\277/^\352=\250>\027\275<\340k=\200\t$\275e>l\276\007\355\234>\213+\271\274\272\010z\275\026\2367;4;[\275\212\tt<\r\360\037\276\t\316\357\274\335\004\005>\314:\204;\216\252!\275\226\304>\274R\353\003\2767jN<\333,\001\276\343\327\315>\331\207v>\006x+>\016\243\233=\252\200.\274q\243\022\275\206V[>\261\275\204\300\025A\242>\234\265\262\300f\215\217>4\306\343\276C(\027\277\320\216\027\275Y\n!?L<K\277\204\304a\300\327Z\233\2768\357\324>@.\223><1\322>U\013\255=\265@\260\273\241\261\007\300Z\341\207\276\310\336/??\030\325\277,~<\277\231!\355>\232\007\212\273\364\376\326\276\237t5\300\252\357\025\277\326\210\332>\212\364\225>\236f\346=\341\314\220=\367\005???\004\250\2779\351\321?\323\022\260\277j\325*?*\245\240=\232\327\003?\361+\212\276w\352\013\275\344\356n\274\200\212c\276Z\3376>\231 \032\3009c\211>\357\014#\277\346\016\263\273\327\201\333>I\345\266\277f\361A?%\300W\276\251a\227>\016\353\260\277t\237\033\277\327\031\270\275R\365=>\311\0302>\277\314\016\275f\320R\300\357\036i??\231k\277)\350\316\275\037j\267>4\207p?\226e\330>H~\024?\0142\252\277\372\277\374>J\035,=\353`\277>X\031q\277\025)A\277E\313\341>\226A\006\277\010I9?H\r3=r(\370\274\001O\220>$v3?hX\r\277\257\216\224\277qm^=w3\327\2750\326\t=\220\274\333=\232\226\334=\276\353J>=\244\323\273\002\320\215>\344\223I>B`\267=f\317V=\000\224\303=6\031\335\274 \350t\275\267\332\245\274\354\361I\276\007\343\203\276\270D\037=K\355\'\276\246TA>\306O\317=\264\266->\257\363\374=v\022\036\276\360<\223\276mP\021;\314\346\201\276\270XI>H\335a>\261\327\002>\357\370\267=PA\207\274\263\305\361=\205\005\213\276^\2775\275\3659-\274\247.\263\275\200\274\331\275\nqh\272\217\215\210\275\335\033\274<\252\025\266\275\322A\221\276\351F\013>\264\345\\>XJ\030<4\002\240\275\233kN\276l\365)>Z$\242=\033\034\276\275kK\365\275\300\307/<\222\315\304\275\305W\033<\256L\002>\242 \350=%\200\246\276(\261=>7\014\372<\350(\306<\2057#\276\302\213\261=g\241f\274\027\033\270>k\364\301\275K\t\276=\361\206\016\276\300\366\t\275\243\325&\276\341\343(\274sn\210=D\240\346\276\027s\347=eQo=U\360\301\275|\\x<vQ\360\275\215\034H\276\362\177\224>\270\271\004<\032\036\204\277\336\220v<n\363P>b4P?UF\304=v+&?\005\342x>U\370\262\277\000\213^\300eOa\276\014\311;>\020T\267=\334\336V\277\327\312F\276\t\264\200>\362qv\277\213\226\334\300\247\006\004?\3261\327\276gd@>y\224.?ag\016\3000yo>9\244\201\277\330|<=\203\227\221\276\036\234G?0>\027\276\033_\312>\236A;>\014!\206\276w\027\211>\335\207M?\243\2703?\331\277+?T)\272<j\264d?\261\324\314\300\027QI\275Ar\246>\023\351Q\300{~\037>\340\363$\300\205x\312>d\367\305=p\225\253>\315\361\017?\363\026\027>,\005\006?uD\262\300\316\001W>\025\2720>\326\234\245\277\247\235\377>\220\002\021\275\336a\272>-\327,?\3312\236>.W\360=\367\264)?Mv\314\273\251\023\023>\206v\n\300\321\345\034\276\016C\213?D\317\020?\343\367\222=_\265\277>2\277*\277dt\025\300\330LG\276U>\235<\276\2437\277s05\277\252\267\241\277\372\235\317>\360\224b\277{\242s\275\0250\324\277x\\i<8\240 =n$\212\274\322\023\207>\377\021\230\275u\242/>\307\020\020>\364t<\276\307\304P=\303\216\236=\364q\317\275t\035f=S\021\311\275}qK\2763\037S>Z\327e\276\377\366b=\0039\363\273\301\213~>\026\200\025\277i\255\346=\032\347\344\274\262\2122\276t\270j\276\035o\036>|\031\020\277\200\213\316\275;\341\310=\177\335\207\275\232\357\245>\232\2465\274\204\255\246\275?\376{\275\242\\\352\274_\3300>\327{\001\277\266\211\276\275\303>\254=\315\006y<\257\314\000<\035\2554>\020\233\n>)\310\025\275Nl\025=U\357\t>U\371T\274\r\375_<\342\353\351=rS<<\226<y> _\215=\025\031O=B$\030=6\261\222>9\354\016=\303J7\275T\222\202<\245\347\022>\362\355\242\276\331)\215=\270\365\205>\221\003)<\325\030\366\275a\351\354<\031\326\261>\"A\017\274Mg\207\276k\213\247=\000iL=\353\310@>\201\177\230=\252\361x\274\333h\204\2765\370\014\276\024\001\322\275\270\346\"\275\214\323\307\276\300\256\212>\356qm<x\001\261\276e\244];\003O\236\275/\205\007\277\027IT\274\203\363\344\276\323e\212\276\311\032\200?\332\253L\276!r\327\276\357;I=u\010\312\276Z\226n\276WK,\276y\031\321\276\246\202y\277\373\321\000?\\\375\213\276a\213\361=$\232v>S\353\204\276\335\260\223\277a\226\224\2764u\310>\226\302\271\275\t\303\007>w\r\006\276\340\3472>A\377A=<\276\367\274\367\014\303=V\374\351>\271Q\013\277Y\366\317>\216-\330\276\277\361\262>\335\3014\277\032G\277>\361\"\367=\214\205\256\273\235\0247=\321^\361>\237\343F>\177+\007\276:o5><\021<>J\260\317=\244\300??\317Y\014?\341b\030\277\323Q\234=\353\360O\275Bk\007\276[\'r\276\341\261\236\277\371{\257\274\241\252\007?\330\274\213\277F.\377\275\321\351.\276\265\216\220<*\177D\277\351\322\203\277\217/v>\025\233\013?\032\311\002?\320$\221>[;\023\277V\356\227?\234\245\215=}`\006?\230\360\t\277\335\273\216=\204.t>n\234\n\276\264n\264>\247\246\236\275S\221\373\276\335^+?\r&\273\276xO\207\275j\226t\276a\264\226\300\263h|\277A6\224\276E\311]?\n\2453?\221\311\025?\343\346.\277D\263\016\300\033\244h\300\245N\034\276x\257R?\273\242\204\276\242K\246\276Za\036?#\367S>\035\017\260\275A\026\347\300\350\250\006?G\356\245\277FG\363\277z\177R?U_\337\277\006\211\333>:Q\000\277\tS<?\"\017N\273w\216B?b\324$?z\237\"\277\026\005/?\306\314n>\243\335N\276\371U\245\277F<\016>\207Z\016?\010\022%?M*7@\006C0\301\256.\352\276\264\340\230\276H\037?\300%\333G\277\021A \300\232\'\216?\307\3626\276\007G\023?@\202\224=B=\r\275\265~U?\340)\376\300TCk>\rJ\327=\224\203\273\277\356\2148\276D]\355>K\365\313>\274.\032\300\270@%?\356\327T=4^\212?Il\201=\032\020F=\006A\211\300wE\003\277T\200\034?\366\023L?\010yE\276\322\346\372;\233\214C\300\247PN\300\033)\205\277T\273I\277\377\035\033\276\340\345N>\363\237\217\277\374\241\254=\244m\321\277\001A\254>\321\322\036\2772N8<d\373/=\004\245\225\273\364dC=\331\352\021\274\264\022=>\360\252\002\272\304\373\317=\3766\232\273\366@O\275\305\366\031>\200\247\002\276\240\303\020=\316\tX>\311\344\264\272\313\243\205>I\3550\276!@\217<3\r\375<)\031\207\275\205\331,\276\221\361\001\274\216\306V=\352\372O\277\345\370.>\223^L\276\377\211\221>@\207~\276\n\243\311\276?\372\233>6\312c\276+\262\003>\t[\353=\263O\251;\326\343\002\276E\333\201=\310\242\031\276(2\332\274u+\253;\004(\310\274n\'J\276\252U\023\275a\006i\275\036\003E<\024q\354<\016\306\230=+\352\320\273\217\320\220\276\314\277\330\276?a\030\275\005\202\306;\254\361\202>\257\037\"=\254{\004=\313\360\270=\016\260q<\005\034\240=w\200%=*\324\300>g\203\035\274\363\304\026\274w|\201\276(\301\024>e\205\313\275\307$\n\276\242\032X>\272\356\234>Hk\273\275g\221\365;\021:\256=sK\337\2759\210\364;\372\243T\276\364\242\271\276\320rn=\322\317\261\274\346\350r\275\023\324\227<\274\230\200\276\220<d\276\342\340#\2731b\343?\341\220\306<\344\350k\276\277Y\310>_G\261\276\265\266\n\277\363\215\235\275,\356.\277\366\312\252=^\371\250>\325\214\332\276\305\3528\275\370`\310=\351\000n>\016\237m\276\363\266\246>\027\220\\>8\020\363=\245\262\232\276\2145\221>Q\0143\277\352\364t?\205\371I\277\3739\270?\334|\267\276\3146 \277\'\027#<\213\000\207\276\334m7>m\310d<$)\353>0\204\372\276\005$\023\277%\200\t>]6[>AH\030\276\206\007\302\276\315\350\265\274\333J\225?$\004\366>\377\002\273>\225\031\346\273bs\236=\360-\325>\227\007\031?\363eS=\336Tl\275\267\223\002\2779\350\347\276wgN\276/\220\336\274_\000\022\277\\\274\242\276\374\351{>\215\267\246=b\241)=9\205\334\276\362j\016\277\023\017->\005i\201=\010\222\357\275\177~\322\276\001 $>\245\362\251=\362\343r>r\250\352>\205\231\246\275V\230\200=y\1770>s\225\277?^\006\213\300Q\370\353>\304]\030\274\2255\224=bbm\276:\223\222=\r\362\242\275\353\277\024>\351\376\321\276p\022\027<N\234\301=e\312\265>\206\270\302?\324\016\021?\025\035\300\274\212\337/\276\214\016V\277\326\334\353=\377\030\333=\223\256\022\276>\247\303>\3738\374\275\033\370\226?*\331\177\276N\017\222=fM\327=\316c\211\275\'\256\346\274\363\350G\277Af\270>\037\256\316\276\266\361\004\277\205\234;\275s\030\376\273\273]\256>\244T\360\275;\004\201\275\014X}\274o\266P\276M\367\302\275\346)N?\373\005\304<\333\275C?<l8?Gt\013\276\362\216v\275\274\244\227\275\037\334\264\274%*f\276\201%\016\276m0\021?\032\301(\277\217\347\260>i\202\013\277\324X\331\277\330CN=}\341\371<\315\263\006?i\345\250=\256\315\240>\347\237\262=\350J\320\275\334\223Q\277\262V\360=\277O\246>{^]?\305/1\277\010\026\305\276fd\023=\367\375\340=\210\002\025\276\361\241\200=\037\345~\276n\351\256>mr\017\2755d\327\276\r6Q?\3531\022>\301\200\341\276\264@c\277r3H\277H\273\231>h\025;?3\274\247\276\251(_>\335\355\023>\233\275\"\275\275\005\225>\205\352\314\273\303\347\263;Q\207\327:G\237\302=\245(\210\276\314\315\000>\03005\276\262C\211>\206\305\325\275\346_\036>\357\3211\274O\033\214\276\177V^\275\367\273\216=y3?\276{\326\351=\017\302}>\220J[=A\213\026=\217\204T\276\207z\325\275T\'V\274\331\017\006\276l\267\266\275\312\227\030\272\336\022\027\276\270\333\231\274\026\274\322\2763\243\365\275\033\306\324=\353]\026\277\032\374\225=mw\366=D\007R=\212\310\r>\232\221q=r\217\301=\207e:\275~\304L>eo\324;\266\260C;ZV.=8\375 :\356\354\253=\223\216\033\275m\t\016>\0244V\275\357\2115>\025\242\263\276\022&\013\276\344\347{=}\"\210\275R<J>O\246F\275\234\037G>\007M\373\275\361\033`>H\223\311=x3\213\275\353%,\275\313\373\240\275\361\272\005?\256/9>\351\000 ?\014w\231=\345#\005>\007\350J>\007=\017\2773\316\203\276a\000\003<\206\201\315>\325\237\016\275\270)\314\274on\340=\357\037\227>\013\317$\277]A\236\274\326\351\371\276\376\326\211\276-\215\210\275\352\004\216<\224V\323;\211\013\001>\271\360H\275\332z\006?GF/\276\235R\360<\3400-?r\023\303\276\321\342?\276\305\242\002>>\020\343>\200a\300>F\223\205\275B\037>\276\312}B<7\265\327>\361UB>\327q-<\\l\235\276\217!\342\275\0057+\276\366\231\201=;\272k\275je\267>\3132\004>\276s\326=%\022\027<FW\305=!\316\307\276\371K\266>\375:\000>Yre\275\271\261\217=\312\312\257>\3716\n\277c\355\316\275\331\005$\276\342\370\220?\377\230\334;\357o\210\274\002\241\273=\365\250\000>\267\314\243<\314\300\361\274!\235\006?\270\276\243\275?(\036?{f\037?\344\003y\275\240Eg>\341\r\223;\2777\210<\215\205x>\315u\363>t\302M>\370\213\217>\212\306\306>\207%\213\275\"f:>\327\021\215\275\236\222\304>\221k\364=\220\r\350\276\036S\371>\231F\350\275\260\\\202\276\016c\326=S` \277\034\220\264\275qRL\277\204\'Y>\270\344\217<\022^\257>\014\n\024\277\022\304\271\276YQ\004\276\027=\355=\"1\003\277U\245\212>i!4=\235\314\025\274\t\t\301<yT\374<\361Zl\274{\323%\276G\245\024\275_#:>\321i\265<\317\376\t>1\201\300\274N\002\177<\013f:<\204\237\212=\347\2203>\360\304[\276\316\026b=\224t\357\276\226\2409=\370*n<\301D>?u\224\200\276]\206\234\275=\352\252=\rH\256>\300\215\222>\206\010\273>\270K\257=\2336\204:A1|>\342e:>\233\237\361=\363g\344\276\243~\245=a\226\337\274\226OF>\0372\214\275\006\027\016>\371\306\327\275\265f\032;l\311\277:\247Gm\275\\\215k\275\332\244\243=:\320\226<\212b\264=^Z\024\276\341\031\007\275\305\253\201\274\201/\274\275\237\373\263=\235\336g\275\177\302:=L6\355\275\216\262\032>3&i\276\275\325\'\275\233\033B>\346\027\332\274\262A\312<\376G\023=\3112\353=Y\377B\276ZM\030\276\204R\247=\274M)\276M=%>\365L\256\276\371\352^\275\237\276u\274\361\241\333\275\363\032\235\276\211\246*<\367\2350\276\t\021\211\276B\t\204\276\'%\236:kr\213\275\3059\324=|\240\333\275|\343\\\276\243\007A\274\213l\000\275\336\215\013=ml\245\275\013\324\007\277k\242*\2746\315C\276\241#\324\275\270\201|\277k\001\223=\370\010\201\274HO-\276Z$Z<\337\177(\276GK\270;\206\024,?l41\276\241\276\304\274pK\321\276\313\321:\2755\356\254=m*\344=)\365H>\364l\036\275K\203(\2753\214\033\277\304\010\030\277\013F\004>\275\312==e\224\017\276\360_!<(lA?\200\t\017\275\255\007B\276\3105\024?\207\271E=\024\343\301>\3270\023=\322\362\3028H<\001=\275\355\016\277B\010\271\273d\320H>\021,(\275\034\224T>\371>\014=\010\225\364;\003P\024\275]Ri\276\201.\005\276\n\300\034=\252B\345\274\230\236\266\275D\231\023\276P\314\303\276\200\300S<\245\031M>\017o\246\274\366G\230\276\n\030*\274\317\0332>\265\005\220<JB\331<\354\376\271=\222\306\231>i^<>,\373\020\274\027\033\200\275p\251m=\225\003[\275\304\'\340=\201\227\264\275\371\202a>\237\032i>E\207\243\275Kn\025\275N\304\221=\331_\\\276\016 \377\274\224\272I\276"
      }
    }
  }
}
node {
  name: "Func/cnn_model/StatefulPartitionedCall/input/_1"
  op: "Identity"
  input: "cnn_model/9815"
  attr {
    key: "T"
    value {
      type: DT_FLOAT
    }
  }
}
node {
  name: "cnn_model/9843"
  op: "Const"
  attr {
    key: "dtype"
    value {
      type: DT_FLOAT
    }
  }
  attr {
    key: "value"
    value {
      tensor {
        dtype: DT_FLOAT
        tensor_shape {
          dim {
            size: 40
          }
        }
        tensor_content: "r/y?H\265n?<\221\241?>\r>?\006\232\204?\214Um?\244=}?\177\213\222?\361\323U?o$[?\223\317s?S\347v?\214\365\217?\354Bv?u\361\253?\233\333\225?\312\367\\?8\274w?\212O\226?\355m\200?\244\216T?(M\204?\373\225\241?\000\013\225?\004\002\234?6\273n?\305\030\222?\347\004\215?s\"x?g/\236?:\013\212?\362\333t?R\355\243?\256(\211?EF\233?\034_\235?\275\236\214?L\303\200?\024\315\221?&\300\213?"
      }
    }
  }
}
node {
  name: "Func/cnn_model/StatefulPartitionedCall/input/_15"
  op: "Identity"
  input: "cnn_model/9843"
  attr {
    key: "T"
    value {
      type: DT_FLOAT
    }
  }
}
node {
  name: "cnn_model/9859"
  op: "Const"
  attr {
    key: "dtype"
    value {
      type: DT_FLOAT
    }
  }
  attr {
    key: "value"
    value {
      tensor {
        dtype: DT_FLOAT
        tensor_shape {
          dim {
            size: 20
          }
        }
        tensor_content: "\257z\275\277\261-%\277\002\311\245=4\025\027\277\233\014\020?\261N\354\277\357\207\327\277\247\'\312\276l\336:?\325\327\337\277\\\276\023\277\213\025\365\276K\275\363\277\257\261\255\277\355\017\314\277&uc\276Do\227\276G\034\247?v\350I\277\211\022\273>"
      }
    }
  }
}
node {
  name: "Func/cnn_model/StatefulPartitionedCall/input/_23"
  op: "Identity"
  input: "cnn_model/9859"
  attr {
    key: "T"
    value {
      type: DT_FLOAT
    }
  }
}
node {
  name: "cnn_model/9819"
  op: "Const"
  attr {
    key: "dtype"
    value {
      type: DT_FLOAT
    }
  }
  attr {
    key: "value"
    value {
      tensor {
        dtype: DT_FLOAT
        tensor_shape {
          dim {
            size: 80
          }
        }
        tensor_content: "\341\233#@\033:\221?\303Z\213?\301\231\033?o\371\206?\236\216\020?\275\217\034?>^Z?\304\261@?\347[\302?\225\253@?X\361+?\350\007}?}\354\214?\211\005\031?\211\327P?s;\031?\256\302\007@\315\315,?\026\337n?`aD?E\331/?\377\212\\?\265\350.?\033\265Y?\014mM?L\033H?8_\254?:\010\000?W\325\274>+4o?\276\036U?I\3440?\230}\206?\273pB?\325\304`?9a;??Ln?\267\306I@\357\225\342?\2135\030?g8B?\325\345f?0\230\213?[am?s\003N?\004\325V?B\"2?\317\321\000?)!1?\242\026\364?\014\312\233?\000Tp?\352\356\177?\205\316D?\000(\243?\315N\202?\017\233y?\344\314\353>0\324\241?\332\215\023?)\350\274?\257X0?\372n\200?\352\274E?\274\304`?\325\277I?`G9?Vy\214?R\212l?\270\020\201?\350O\344?\343\022~?\207\267\r?\027u\017?5\237\214?*Kg?\313\347H?d\226\031?*\360S?"
      }
    }
  }
}
node {
  name: "Func/cnn_model/StatefulPartitionedCall/input/_3"
  op: "Identity"
  input: "cnn_model/9819"
  attr {
    key: "T"
    value {
      type: DT_FLOAT
    }
  }
}
node {
  name: "cnn_model/9885"
  op: "Const"
  attr {
    key: "dtype"
    value {
      type: DT_FLOAT
    }
  }
  attr {
    key: "value"
    value {
      tensor {
        dtype: DT_FLOAT
        tensor_shape {
          dim {
            size: 20
          }
        }
        tensor_content: "i\242\000A\367\357\002A=\370@@\232\271`@\037\3674@v\'\274@\000\350\211@{`\254@\320\213\202@\3511\030A\202\237Z@\252\254\317@N%\267@\253\\w@\3648\226@\201\006\264@am8A*t\251@g\376B@\2117\335@"
      }
    }
  }
}
node {
  name: "Func/cnn_model/StatefulPartitionedCall/input/_36"
  op: "Identity"
  input: "cnn_model/9885"
  attr {
    key: "T"
    value {
      type: DT_FLOAT
    }
  }
}
node {
  name: "cnn_model/9897"
  op: "Const"
  attr {
    key: "dtype"
    value {
      type: DT_FLOAT
    }
  }
  attr {
    key: "value"
    value {
      tensor {
        dtype: DT_FLOAT
        tensor_shape {
          dim {
            size: 20
          }
        }
        tensor_content: "l\014\256@\240H\275@P3\223@\204_\317@\330\343\226@|I\203@\202\225m@\252\366\330@\247\270\243@\335\332\277@\342f\237@^\2003@MT\251@-uY@6\302,@\013\246\036@41\231@\333\313\017A\271Y\200@\315#U@"
      }
    }
  }
}
node {
  name: "Func/cnn_model/StatefulPartitionedCall/input/_42"
  op: "Identity"
  input: "cnn_model/9897"
  attr {
    key: "T"
    value {
      type: DT_FLOAT
    }
  }
}
node {
  name: "cnn_model/9823"
  op: "Const"
  attr {
    key: "dtype"
    value {
      type: DT_FLOAT
    }
  }
  attr {
    key: "value"
    value {
      tensor {
        dtype: DT_FLOAT
        tensor_shape {
          dim {
            size: 80
          }
        }
        tensor_content: "C\364\006\276%\333\031>\313L\005\277R \003?Q\032\355=\351\237\330=\363\206\265>\340_l\276\344\347??\323\215\331\276)\356\177\276\007\017\257\2762xL\2771$\211>\224\332\267>\252=\312\276D\031\303\276\242\010\326>4\337g?\232\032O\277o\302\t?Y\345\202>\002\367\314\275v\311\302>\363\264\207\277\370\215\216\277\241\254\003>!\303\346\276\3219\006\276\232\r>=\021\322\236>\223\001\242\276t\310E?#\210\010\277I\241\314\275\362\272}\276\377j\260>\3516\210\276\366\205\217\275H\323\276>!h8?\276lD>\247\347\030\277\325\306\230\275\036\367D?\377\223\217\276\013\276\214=\220\375/\277kz0\274\305N5\277\230k\364\276\\\223>\277/o\033\277\032p\331\275\341l\233>\n\350L\276/)\027\277\031\373\231\277\317%\002\276;\332\345\274\334\004v?\244\316\224\277q\362\243;vr\350:\306N-?\304D\240\276\263\354Z\277l\314\026?\000\331y>\335\014\344\276$59>)\211!\276\222\317\327\277\177\217\245=8u\310>\317`\326\275\020i\216\276\3709\317=\334\321@?X|\203>"
      }
    }
  }
}
node {
  name: "Func/cnn_model/StatefulPartitionedCall/input/_5"
  op: "Identity"
  input: "cnn_model/9823"
  attr {
    key: "T"
    value {
      type: DT_FLOAT
    }
  }
}
node {
  name: "cnn_model/9837"
  op: "Const"
  attr {
    key: "dtype"
    value {
      type: DT_FLOAT
    }
  }
  attr {
    key: "value"
    value {
      tensor {
        dtype: DT_FLOAT
        tensor_shape {
          dim {
            size: 60
          }
        }
        tensor_content: "Bd\347?Ws\366?&\016\004@\271U\020@\005\252\262?\330\342K@\272-\016@\267\016C@\373\022\367?4\243\375?\327@\234?\372\010\"@i\026\270?\031\317\373?\346u\201@U\317\337?\334\232\005@\215f\277?qN\205?\270\322\344?~\013\337?x\202+@.h\357?\264x5@7\341\301?\205\237w@\210ox?\321\266\365?[\343*@\224\252&@\236zB@\237\264\010@\3711~@\347\301^@\331\370\333?m\350\361?Y\333\227?\301w\332?\303\245\226?\327\327,@c\177B@N\312\247?<\333.@\215p;@(r\234@\305B\336?\243f&@hyk@?\264S@>JB@\200&\022@dz\224?\277\226\023@[\242\377?\001E\217?\330\266\361?\016I\r@\374\342\030@\373\243N@\352\347^?"
      }
    }
  }
}
node {
  name: "Func/cnn_model/StatefulPartitionedCall/input/_12"
  op: "Identity"
  input: "cnn_model/9837"
  attr {
    key: "T"
    value {
      type: DT_FLOAT
    }
  }
}
node {
  name: "cnn_model/9851"
  op: "Const"
  attr {
    key: "dtype"
    value {
      type: DT_FLOAT
    }
  }
  attr {
    key: "value"
    value {
      tensor {
        dtype: DT_FLOAT
        tensor_shape {
          dim {
            size: 1
          }
          dim {
            size: 1
          }
          dim {
            size: 40
          }
          dim {
            size: 20
          }
        }
        tensor_content: "\366+.\277:\255\006>\024\016\001\2757\024\201\276\000\023\361>p%0>\255\324\016>U\302\204\276W%\355>\014,\257>Y\340\347\274\275\311\245\276M*\023?\351=\223\274\253d\002\276\372\2013?p\'\207>\216\210\272\275gC\374\275\021\207L\276.\037\"\2774w-\276\021\010\310>\205]\245>G*\352\276m\277B\276V\341^>\010\273\213\276\373\262\216>cG\221>\311\344\003?J\265X>X\036\244=#%\336\276\376i\307\276\234\177H\276D?O=G\275V\276_\306\237>\217\356\001>\215\274\254\276ny5\276\375\004\231=f\332\313\276W\025m\275@\256\217\276&C&\277\004i\n>\326\261\017?\3133\344\276\316\332\212\276\037\361\210=\315h\004\277\024\223\251\275xA\327\276t\343\204\276\334Q\207>D\276\353\274g\200\250\276\267\240[\277\202#\241\276\304(j\275l\320;\277\337\314\265>\336H`>b[\006>\373\030|<\007\311\233=0\350\021\277I\254\336\274\262\275g>\032\355z>\236\210\357\276G\250\264=\275\251\004>\345\024]<\003\364\n\277\356\021Y\275k\014\177>\264\371\264\276\0358}>\271\223^\277\207\340o>\251\247X\277\272n\237\276\220\304\352\276:K\355=<h\001\277U\025\321\273I\245\341\274\373z\243=\227\022\350\276H.\266\274\314W@\276\372\300\020>\320\271\336=\323\261\276\273\373M!>\263\246\310\275\274\340\006?\004\033\270\276MV\272=5\030\230\275\231\006\255\276E\\ ?o)\330>\262\223\251=\213{\365=?\335\003\276\316Y\264\276\302\206\231>q>\'\276\314\033\345>\035\226\017>RLn\2767&\021?em\014\277\201\251\230=.x&\275\265\023w;\231\247\377=O\214\030>\"\322^?\233x\213>\356\335\211>\357\001\375>\t\272\333\274\240\345\305=\267\243\261>w\274\212>\224\215(\276\262\320Q\2762\350\210>\025\252\023?&4\315\2764\246/\275f\002\017\275A\304\224\276\"\357\365\275\317N\343\275\350\346\222>\301$u=\375k\013\276\001{L\276\320\334\210\276\275\263\353\276\221\352\275\275\257\257\\\275\343\231z>\304\200n\277\346%\004\276\250\306\257>f\000\007\277\253\365\365\276\246\214\034\277H\264\243<\204\315\250\273\277S\271>\343 \350>n\250\340>p+\262>\207\362\347=M\r#>1\241\325=f\340\006<7\370\245>t_\251\275\255\277\232\276z-\356>U\252.>\322\024\243>|0\375;\256\304\240=\370\210\315\275\235\233\026\277\235\326\004\277\311.\305\276?u\227\275\216\031\310\276:\361\315\275_\006\013\275\320x\246\275\321\320\327>\351\336\250=)(\177=\313e\331\276\261\355\304\275 >a\276\277\376\005>&/\234\276\224\311[\275L6`?\306\376\323\276\240q\236>\221\226\213\276\206\016\304\276\316\240\200>^\325\211<\007\266\332>\276\342\343=\024\252\323\276\314y\013\276\003\376\372\275&\301\205\276\334A\201\275\356W\335\275Y\034Y>51\253>\230\026\227>\273,!\275\305cK?\220\275\217=g\327\256\274\013\342\333=\313\215\304\275,\261y>\270\244\243\276\200{\357>\305\247\301>\355\006\342>\300\373\254\276\357\235\212<$\376\372\276\271\\\003?\304H\010\276\270)\320\276*\213)>\372\220\013\2779\276h\276\222m\'\277\3751+>/NX\276\321\316\240\276JIo>\360\006\">J\270\266=a\366\315\276\221#\333>\214\363\311\276\377y\201>\314L<\276\277\335\276\276\374\377\343\276Hc\035\276\321x\300>\034\343\215>\013uR?\302\203?=7\312\271\275\001\246\002\277fx\020>*\344\242\276\320\212=\276Z\254q\274l\273\232\276\n:\021>h\027\017\277O%\302>\023\303\005\277z\325\223>\026\360\355\275\255A\"?\207\355\354=\205cP>\032\270m\2760\312\305\275\373\305\306>e\214\310\276&50>\344\030 \276\371\320\243\275\025q\324=2e\t\276!\207K\275:J\267>\021+\304>,\205w\277\310X\273\276\377 \242\276n\361\223>[\ng\276o(@>SV\251\276\267\304L\276\355k\220\276\r{\000\277\362\023q>\257\264\036>\014z%=\364\220$\276C\243\200\277\0032\337\2757%\004\277\007j\004=\235\340\035\277#\242\320>\214\032\203<\013\200\010?VSg\276\t\222S\276f\310\235\276>\000\364<\345\252\201\275\t3*\277z\357p>\265\355\033\277\323\'\307\275\250\2255\277\277*\351>\r\315\023>T\335#\276v\374\205\275\037\034\240>\204\273\256>B\366\364\276\220H\321\276\210F\316>\213W\211=z\226\331=\225\036\037\276 x\354\275\221X\336=\240\032\312\274\360e\230=\264g\315>\346\013U\271\264\270\234\276\2272N\274GO\334>\233\332?>\263VA\2764\016\242\276\300i@>Sg\234\276}\250\265\276\233 \021?i]\026\277$\030\325\276\372\246f>\364#\036\276\'\363\276\276\006k\200\276\016\210\360=\230\222\260\276\033\336\211\276\204\336\235>\32540\277(5K>\201\n\264\275Bu\232=\2310\'\276\t5J=\346fq\276_:\220\276\024\236\246>F)\303>\230F\212\276\003\327R>--\212>\307\006\304>\2405\017\276\212\032\001\277\350\351\265>\250\027\312>o\361\340\276\344\245\365\276\235\375%\277B)\234=p\241R\275.\010\212\276\314\303\377\275:G,>W^M>\332\210\201\276\270z\312\2750V\037?o!\017>5\353\013\277j\030\222\276\347H\266\276\253\277y\277\211\336\027>\r\207\224>~\3754\276\305\307\002\277\357\203\216\276\0059\321>\001j\024\276s\204\211\276\026l2\276\223\302\235>o\270\331=\261L\333>\324\233\372=\017\277\225>\333\020\024\276xI\374\275\010\361\213>n\224\216=\350\207\005\2777vA\276\305\351\324\276\023\315\006?\206h)>\360\2611=\035\310\362=X\'\324\275\325\304d\276\014\203\202\276\250\312a\275\340\231b\276O\333\200\274\002zL>\n\037\330\276\372/\263\276\200_\004\2775\3353\275\215\232\005\277Ay\246\276\337!V\275\216\030\254\274`\244\367\276\327J\202<\tx\354>/\366\241\276\034!\312<\376\236M\276\3115$?~\316\314\276\004\210o>\262\001\252=|/\351>i\3467>\230R\322> \322\321>htY=\276u\013?\315\227\255>z\265b\276\215\037y>\211\305\237>\352\024\337=vZP=\037\353\236>>l\275>f\001_?\"a\004>C\000\300\276\016.3\275f\307!>\224\025\332>p\021b\277\242\360\006\277\364\366\013>\2436\326\276!$\353\276\300\233\263\274\203\353\373=\'\317\337;\247\313\265\276\372\032\204\276\006\313\227=\022\034\242\2765\245\265>\"o\311\276\330\357\024\276\264vE\275,[\200\276\"\301\221> \021\262\276\305J\314\274\223i\003\276\215f<\277w\231\002>\033\024\030>\006%<\277af\261>\3010\362>\266;@\276\np\037>\362\344i\2754k\270\276\314\226\376=q\3668>\030^\357\276[\007D\277\206L\241\275\315\2004>mn\"\277\004|\025\277\341[\002\276Z\237\000?Zr\350\275:{\303\276\310\210\017<F\336\021\276\266\344\240\275w\0342?v\377\322=\320\220\305=\372\320\260\275\036:\240>KO\231\276\013\2254\276&t\213>)\227{>I}\017>!\377Z=I\"\027\2760@\366\276\\\315\213\276\2252\267\275\305\370n\275p\337\367\276\212>\253>\221\317n\275-\2426\2778v\223>\253\230c\276X\207\002?\324\247\315>Ib\333>\314\344r>cU\254>\260\275\221>M\310\214=[\004\007>\001\257S?Of\000\277\003\026\027>\003\266\026?\357%\335>\320\261\036>h\350->\321;\334;;\310\326\276\241s\322>H\233b>\352\232&\276y\000M\276\264\312\377>oO\221>XV\374>\306\364\313>\227\267\207>\346\270\207\276\261g\177<`\353\347\274[\327\366\275\273l\337<\356Q!\277Nf\003\277\330!\357\276>\271\034\277\306\210/\275\247\204.>\020< >\026\026\301\276|\261\254\276\366\013/\276\246\266\214>\345\274\024?\037\031)\277+\251\310:\036\277\340>]O\006\277Dy>\276\350\215T\276\236\227\270\276\372\1771>R\373\257=[\273\253>\210\005\334\276\333\305\r\276\305\325\024>\226\364\017\276\235\254L>\024\251\252>\335\032V>\264\301<\276zg\355\276\223u\275\276\016\264\201=\221\374{>d\262\233\275\037\245\332\276\024\312:\277\033~`\276K~\316>m\317\347<\t\316\224\276\216R\214\276\0357\340\276\373t\004?\364\350\277\276\250\272W\276\006\023\323>s\007\207>J~\247>\306\257E>B\230\024?\316\221\265\276*A\201\2769+\227\276g\236\016\276\310S\220>\340\226X\276\247\237\237\274j\246U>1H1?\214\025\274=2k\273\276\021\224W>\312i\211<\014Y\200>\217[\203>\303\204\253\276\004\300\200\276\200\324\"?g\320\010?\r\201\214\276\340\021[=a\305\361<D\014\224>\020\343\217\276\250\312\035\276#\316\313>ng~>\350\332\335>&\303$?\334p\342=\013\'\004\277\207\026\325>;\251Z\276\301\222V>,7S\2751\330\031\276\\\004S>\tbf>D\246,>~0\253\275%O\255\275\212a\315\276#\014\317\276|6\253\273Wl\232>\221z\240\276\266\225\211\274\017\027\005?I\204\362\276K>\004\2774^\r\276\216n:\277[\361\"\277\371A\235\276\333*>\275\330\357\037\276\255\245^>\215\035\310\276t\333\t>\256\256\201=\374\353\315=(\243\275>\177\317\220>\342\276?>2h!>\233\177N\275\265\371\211?c\273N\276!\376\206\276\177F\250\276\265U\003?}\264a\275\204\320\267\275\235\231\260>\332\213\000\276\030\213\021=\303L\361\275(\270.=k\036\322\275YFG>:\t\031\276\001\215P\276\255\210@\277u\373\371>\275b\320\275\353g)=x\027\337\276\351\253\224>\243\365\247\276\200\005\310<\r!_\276\205\255%\277\230vC=\006\236\304=\232\262E\277\347\004\365\276\334\207$>`\314\302\276in\354=QH\300:\254`G\276r\202\235\276}Dg\276\330]\337;y,\027\276\356=\320=\336WR>\320]\245\276\231i$\276\363#\337>\364\3315\274\350\325\361\274\264O8\276\221\327d?\227\277c>\255W\036?\000a\024>EeV?\340\370U>\004EH\276\305\2374?s8<>\002\367\337>\'\336M=\305\326\212\2761\366{\276\343q\236>\221\341/\2769\030\005\276\277f5=\230PS\274\314\251\'\276B/\243\276M,\260\276\037\232\230>DGg=\016\345\372\276]\016\360\276\326\027\002?*\253\346>fLe;L\323\032?^\037\227=p =?\027(\035>\317\214\324\276\357\364\002\276\305\247c>S\\\204\276V\225\300>\235\336\307\276\0230\257>\265l\330>\370c\333>\363\352\326>e\335\035>\203\3372\276\362\032\343=\010\314/;\021{\244\276\036\013\010?;:\277\275!\326\302>\272\300\037=\0308\217>\301BC\276\234\233\343\275Q\2040\277\366[\227>\030\320\207\275t\205\273\275KP\311>\262\361w>\024Lw\276\2737:\276\304[,={\005\016?z\364\331\276\364;\r?]\004\272>\020\344l\275\365\301\310\276\330\306N=b\265\016?\032\177d\276\027&\370\276\326{\220=>E\252\276\345\223\036\275a\2611>\373\2140\276/\017\262>2W\215\277\2202a\276\343\374:=\027\305\264=\303\255>>0\224`\276\3245\305="
      }
    }
  }
}
node {
  name: "Func/cnn_model/StatefulPartitionedCall/input/_19"
  op: "Identity"
  input: "cnn_model/9851"
  attr {
    key: "T"
    value {
      type: DT_FLOAT
    }
  }
}
node {
  name: "cnn_model/9861"
  op: "Const"
  attr {
    key: "dtype"
    value {
      type: DT_FLOAT
    }
  }
  attr {
    key: "value"
    value {
      tensor {
        dtype: DT_FLOAT
        tensor_shape {
          dim {
            size: 20
          }
        }
        tensor_content: ";\003\'@\366\350\327?|\325.@2\007\013@\315\366\035@\032\347Q@Y\270+@\277\362J@\036A\340?\225\r\360?0\244q@F\2725@\305\243\210@y\\\364?\277E~@H\014\016A\222?5@p\003\024@`\204*@Y\210W@"
      }
    }
  }
}
node {
  name: "Func/cnn_model/StatefulPartitionedCall/input/_24"
  op: "Identity"
  input: "cnn_model/9861"
  attr {
    key: "T"
    value {
      type: DT_FLOAT
    }
  }
}
node {
  name: "cnn_model/9873"
  op: "Const"
  attr {
    key: "dtype"
    value {
      type: DT_FLOAT
    }
  }
  attr {
    key: "value"
    value {
      tensor {
        dtype: DT_FLOAT
        tensor_shape {
          dim {
            size: 20
          }
        }
        tensor_content: "\346\337\270@\236e\177A#j\223A\263\217\257@v:\334@[\311\214A\316P\372@\263\n\030A\301\n\366@\236\277\273@\347\322%A|Q\024A\214\t\003A\212\312\337@\024\336#A2\360\006Ae\306N@\232d\tAE\273\271@\315\353\"A"
      }
    }
  }
}
node {
  name: "Func/cnn_model/StatefulPartitionedCall/input/_30"
  op: "Identity"
  input: "cnn_model/9873"
  attr {
    key: "T"
    value {
      type: DT_FLOAT
    }
  }
}
node {
  name: "cnn_model/9887"
  op: "Const"
  attr {
    key: "dtype"
    value {
      type: DT_FLOAT
    }
  }
  attr {
    key: "value"
    value {
      tensor {
        dtype: DT_FLOAT
        tensor_shape {
          dim {
            size: 2
          }
          dim {
            size: 2
          }
          dim {
            size: 20
          }
          dim {
            size: 20
          }
        }
